{
  "version": "1.0",
  "truncation": null,
  "padding": null,
  "added_tokens": [
    {
      "id": 0,
      "content": "[UNK]",
      "single_word": false,
      "lstrip": false,
      "rstrip": false,
      "normalized": false,
      "special": true
    },
    {
      "id": 1,
      "content": "[CLS]",
      "single_word": false,
      "lstrip": false,
      "rstrip": false,
      "normalized": false,
      "special": true
    },
    {
      "id": 2,
      "content": "[SEP]",
      "single_word": false,
      "lstrip": false,
      "rstrip": false,
      "normalized": false,
      "special": true
    },
    {
      "id": 3,
      "content": "[PAD]",
      "single_word": false,
      "lstrip": false,
      "rstrip": false,
      "normalized": false,
      "special": true
    },
    {
      "id": 4,
      "content": "[MASK]",
      "single_word": false,
      "lstrip": false,
      "rstrip": false,
      "normalized": false,
      "special": true
    }
  ],
  "normalizer": null,
  "pre_tokenizer": {
    "type": "Whitespace"
  },
  "post_processor": null,
  "decoder": null,
  "model": {
    "type": "BPE",
    "dropout": null,
    "unk_token": "[UNK]",
    "continuing_subword_prefix": null,
    "end_of_word_suffix": null,
    "fuse_unk": false,
    "byte_fallback": false,
    "ignore_merges": false,
    "vocab": {
      "[UNK]": 0,
      "[CLS]": 1,
      "[SEP]": 2,
      "[PAD]": 3,
      "[MASK]": 4,
      "!": 5,
      "\"": 6,
      "#": 7,
      "$": 8,
      "%": 9,
      "&": 10,
      "'": 11,
      "(": 12,
      ")": 13,
      "*": 14,
      "+": 15,
      ",": 16,
      "-": 17,
      ".": 18,
      "/": 19,
      "0": 20,
      "1": 21,
      "2": 22,
      "3": 23,
      "4": 24,
      "5": 25,
      "6": 26,
      "7": 27,
      "8": 28,
      "9": 29,
      ":": 30,
      ";": 31,
      "<": 32,
      "=": 33,
      ">": 34,
      "?": 35,
      "@": 36,
      "A": 37,
      "B": 38,
      "C": 39,
      "D": 40,
      "E": 41,
      "F": 42,
      "G": 43,
      "H": 44,
      "I": 45,
      "J": 46,
      "K": 47,
      "L": 48,
      "M": 49,
      "N": 50,
      "O": 51,
      "P": 52,
      "Q": 53,
      "R": 54,
      "S": 55,
      "T": 56,
      "U": 57,
      "V": 58,
      "W": 59,
      "X": 60,
      "Y": 61,
      "Z": 62,
      "[": 63,
      "\\": 64,
      "]": 65,
      "^": 66,
      "_": 67,
      "`": 68,
      "a": 69,
      "b": 70,
      "c": 71,
      "d": 72,
      "e": 73,
      "f": 74,
      "g": 75,
      "h": 76,
      "i": 77,
      "j": 78,
      "k": 79,
      "l": 80,
      "m": 81,
      "n": 82,
      "o": 83,
      "p": 84,
      "q": 85,
      "r": 86,
      "s": 87,
      "t": 88,
      "u": 89,
      "v": 90,
      "w": 91,
      "x": 92,
      "y": 93,
      "z": 94,
      "{": 95,
      "|": 96,
      "}": 97,
      "~": 98,
      "§": 99,
      "¨": 100,
      "«": 101,
      "­": 102,
      "°": 103,
      "²": 104,
      "´": 105,
      "·": 106,
      "»": 107,
      "É": 108,
      "Ñ": 109,
      "Ó": 110,
      "×": 111,
      "Ü": 112,
      "à": 113,
      "á": 114,
      "â": 115,
      "ä": 116,
      "ç": 117,
      "è": 118,
      "é": 119,
      "ê": 120,
      "ë": 121,
      "í": 122,
      "ò": 123,
      "ó": 124,
      "ô": 125,
      "ö": 126,
      "ú": 127,
      "û": 128,
      "ü": 129,
      "ý": 130,
      "Ą": 131,
      "ą": 132,
      "Ć": 133,
      "ć": 134,
      "Č": 135,
      "č": 136,
      "Ę": 137,
      "ę": 138,
      "ě": 139,
      "Ł": 140,
      "ł": 141,
      "Ń": 142,
      "ń": 143,
      "ō": 144,
      "ő": 145,
      "ŕ": 146,
      "ř": 147,
      "Ś": 148,
      "ś": 149,
      "š": 150,
      "Ţ": 151,
      "ţ": 152,
      "Ź": 153,
      "ź": 154,
      "Ż": 155,
      "ż": 156,
      "˝": 157,
      "–": 158,
      "—": 159,
      "‘": 160,
      "’": 161,
      "“": 162,
      "”": 163,
      "„": 164,
      "•": 165,
      "…": 166,
      "−": 167,
      "ie": 168,
      "na": 169,
      "ow": 170,
      "cz": 171,
      "rz": 172,
      "st": 173,
      "nie": 174,
      "ni": 175,
      "ch": 176,
      "ra": 177,
      "po": 178,
      "sz": 179,
      "dz": 180,
      "ro": 181,
      "je": 182,
      "ał": 183,
      "ię": 184,
      "li": 185,
      "go": 186,
      "rze": 187,
      "ko": 188,
      "ka": 189,
      "za": 190,
      "le": 191,
      "ne": 192,
      "do": 193,
      "ny": 194,
      "te": 195,
      "ci": 196,
      "ta": 197,
      "mi": 198,
      "ty": 199,
      "ki": 200,
      "się": 201,
      "ów": 202,
      "wy": 203,
      "to": 204,
      "wa": 205,
      "re": 206,
      "ła": 207,
      "ja": 208,
      "wi": 209,
      "że": 210,
      "rzy": 211,
      "by": 212,
      "ma": 213,
      "da": 214,
      "no": 215,
      "prze": 216,
      "owa": 217,
      "la": 218,
      "od": 219,
      "nia": 220,
      "kie": 221,
      "dzi": 222,
      "pa": 223,
      "ry": 224,
      "ją": 225,
      "ku": 226,
      "czy": 227,
      "dzie": 228,
      "ce": 229,
      "sta": 230,
      "mo": 231,
      "wie": 232,
      "ło": 233,
      "cy": 234,
      "cze": 235,
      "wo": 236,
      "cie": 237,
      "dy": 238,
      "mie": 239,
      "kt": 240,
      "ści": 241,
      "pra": 242,
      "my": 243,
      "ob": 244,
      "ar": 245,
      "ru": 246,
      "de": 247,
      "tu": 248,
      "przy": 249,
      "mu": 250,
      "szy": 251,
      "jest": 252,
      "nych": 253,
      "si": 254,
      "em": 255,
      "sa": 256,
      "pow": 257,
      "cj": 258,
      "pi": 259,
      "..": 260,
      "ała": 261,
      "sze": 262,
      "któ": 263,
      "in": 264,
      "lu": 265,
      "pie": 266,
      "we": 267,
      "owe": 268,
      "owy": 269,
      "pe": 270,
      "pro": 271,
      "ży": 272,
      "ga": 273,
      "or": 274,
      "ły": 275,
      "bi": 276,
      "ze": 277,
      "cza": 278,
      "Po": 279,
      "ną": 280,
      "co": 281,
      "zy": 282,
      "me": 283,
      "ski": 284,
      "ba": 285,
      "raz": 286,
      "zna": 287,
      "ca": 288,
      "skie": 289,
      "cji": 290,
      "lo": 291,
      "bo": 292,
      "roz": 293,
      "spo": 294,
      "łu": 295,
      "wia": 296,
      "du": 297,
      "nego": 298,
      "ść": 299,
      "tak": 300,
      "nej": 301,
      "os": 302,
      "owi": 303,
      "pod": 304,
      "sy": 305,
      "jak": 306,
      "fi": 307,
      "ró": 308,
      "ju": 309,
      "nym": 310,
      "ale": 311,
      "su": 312,
      "sie": 313,
      "nt": 314,
      "bie": 315,
      "se": 316,
      "an": 317,
      "gi": 318,
      "be": 319,
      "cho": 320,
      "niu": 321,
      "cja": 322,
      "Na": 323,
      "niej": 324,
      "Nie": 325,
      "pu": 326,
      "bu": 327,
      "wię": 328,
      "ało": 329,
      "sk": 330,
      "ska": 331,
      "ków": 332,
      "sza": 333,
      "jed": 334,
      "ję": 335,
      "bę": 336,
      "powie": 337,
      "praw": 338,
      "owie": 339,
      "ały": 340,
      "tym": 341,
      "wszy": 342,
      "sty": 343,
      "sto": 344,
      "ia": 345,
      "tego": 346,
      "zo": 347,
      "gra": 348,
      "są": 349,
      "przez": 350,
      "Je": 351,
      "szcze": 352,
      "nu": 353,
      "naj": 354,
      "ak": 355,
      "który": 356,
      "dla": 357,
      "rów": 358,
      "wła": 359,
      "lko": 360,
      "pó": 361,
      "mów": 362,
      "przed": 363,
      "rzą": 364,
      "dze": 365,
      "tra": 366,
      "ności": 367,
      "ża": 368,
      "rę": 369,
      "już": 370,
      "rowa": 371,
      "on": 372,
      "czo": 373,
      "Za": 374,
      "owych": 375,
      "ste": 376,
      "czę": 377,
      "bar": 378,
      "kon": 379,
      "...": 380,
      "cha": 381,
      "które": 382,
      "cia": 383,
      "ście": 384,
      "dzo": 385,
      "mia": 386,
      "dział": 387,
      "bez": 388,
      "gł": 389,
      "nę": 390,
      "ok": 391,
      "pre": 392,
      "dob": 393,
      "trze": 394,
      "może": 395,
      "owej": 396,
      "al": 397,
      "ich": 398,
      "skiego": 399,
      "czą": 400,
      "gu": 401,
      "trzy": 402,
      "dni": 403,
      "kę": 404,
      "owo": 405,
      "tem": 406,
      "tylko": 407,
      "jąc": 408,
      "jący": 409,
      "wó": 410,
      "py": 411,
      "zu": 412,
      "stę": 413,
      "ona": 414,
      "war": 415,
      "sob": 416,
      "wszyst": 417,
      "rza": 418,
      "będzie": 419,
      "ter": 420,
      "cu": 421,
      "bra": 422,
      "niem": 423,
      "kła": 424,
      "świa": 425,
      "jego": 426,
      "sko": 427,
      "Ko": 428,
      "ować": 429,
      "było": 430,
      "mówi": 431,
      "gó": 432,
      "był": 433,
      "tych": 434,
      "skiej": 435,
      "Ma": 436,
      "rw": 437,
      "kiem": 438,
      "mię": 439,
      "tam": 440,
      "so": 441,
      "ńst": 442,
      "sł": 443,
      "tej": 444,
      "To": 445,
      "bli": 446,
      "gło": 447,
      "słu": 448,
      "śli": 449,
      "też": 450,
      "czas": 451,
      "jej": 452,
      "Pa": 453,
      "zi": 454,
      "lę": 455,
      "kra": 456,
      "for": 457,
      "śmy": 458,
      "sią": 459,
      "19": 460,
      "owego": 461,
      "Ja": 462,
      "rt": 463,
      "kto": 464,
      "dza": 465,
      "wią": 466,
      "00": 467,
      "stra": 468,
      "nic": 469,
      "swo": 470,
      "moż": 471,
      "nad": 472,
      "rod": 473,
      "nika": 474,
      "ten": 475,
      "tycz": 476,
      "ował": 477,
      "prowa": 478,
      "mnie": 479,
      "fe": 480,
      "poli": 481,
      "śnie": 482,
      "ką": 483,
      "dzy": 484,
      "roku": 485,
      "ge": 486,
      "sku": 487,
      "stu": 488,
      "men": 489,
      "Pol": 490,
      "lą": 491,
      "gdy": 492,
      "łe": 493,
      "dą": 494,
      "jące": 495,
      "wz": 496,
      "fa": 497,
      "oraz": 498,
      "cią": 499,
      "działa": 500,
      "Ka": 501,
      "nak": 502,
      "kich": 503,
      "nię": 504,
      "lub": 505,
      "Ch": 506,
      "jeszcze": 507,
      "nik": 508,
      "cyj": 509,
      "kole": 510,
      "Wy": 511,
      "być": 512,
      "ji": 513,
      "kim": 514,
      "den": 515,
      "owania": 516,
      "pad": 517,
      "zie": 518,
      "im": 519,
      "pew": 520,
      "Do": 521,
      "łem": 522,
      "sła": 523,
      "robi": 524,
      "żo": 525,
      "cję": 526,
      "\".": 527,
      "pół": 528,
      "stan": 529,
      "czu": 530,
      "miej": 531,
      "peł": 532,
      "ałe": 533,
      "tni": 534,
      "lat": 535,
      "ność": 536,
      "miesz": 537,
      "pol": 538,
      "two": 539,
      "Mi": 540,
      "sobie": 541,
      "spra": 542,
      "Prze": 543,
      "gie": 544,
      "skich": 545,
      "ców": 546,
      "sia": 547,
      "un": 548,
      "pła": 549,
      "cznie": 550,
      "zd": 551,
      "ri": 552,
      "tę": 553,
      "stęp": 554,
      "samo": 555,
      "bardzo": 556,
      "zost": 557,
      "pan": 558,
      "stro": 559,
      "dłu": 560,
      "rzu": 561,
      "rą": 562,
      "kiego": 563,
      "jednak": 564,
      "wod": 565,
      "ws": 566,
      "gro": 567,
      "miejs": 568,
      "towa": 569,
      "ałem": 570,
      "wier": 571,
      "wet": 572,
      "cje": 573,
      "mog": 574,
      "chodzi": 575,
      ").": 576,
      "liśmy": 577,
      "dzą": 578,
      "daw": 579,
      "prac": 580,
      "jako": 581,
      "Ale": 582,
      "dru": 583,
      "dnie": 584,
      "tów": 585,
      "owym": 586,
      "była": 587,
      "kre": 588,
      "ową": 589,
      "usta": 590,
      "kil": 591,
      "uro": 592,
      "łą": 593,
      "kar": 594,
      "dę": 595,
      "rzę": 596,
      "chy": 597,
      "ób": 598,
      "tek": 599,
      "dro": 600,
      "Te": 601,
      "nio": 602,
      "czego": 603,
      "Bo": 604,
      "pię": 605,
      "tk": 606,
      "koń": 607,
      "Mo": 608,
      "Ra": 609,
      "lnie": 610,
      "szą": 611,
      "gru": 612,
      "kom": 613,
      "czne": 614,
      "par": 615,
      "tka": 616,
      "więk": 617,
      "tru": 618,
      "ek": 619,
      "nią": 620,
      "tą": 621,
      "owanie": 622,
      "uwa": 623,
      "zosta": 624,
      "tere": 625,
      "bud": 626,
      "chod": 627,
      "Czy": 628,
      "pły": 629,
      "spe": 630,
      "dar": 631,
      "ktu": 632,
      "cznych": 633,
      "pla": 634,
      "kiej": 635,
      "ran": 636,
      "róż": 637,
      "nawet": 638,
      "um": 639,
      "cię": 640,
      "tnie": 641,
      "au": 642,
      "zło": 643,
      "szę": 644,
      "kry": 645,
      "skim": 646,
      "rząd": 647,
      "di": 648,
      "Ro": 649,
      "spraw": 650,
      "można": 651,
      "mieszka": 652,
      "lne": 653,
      "dziej": 654,
      "twa": 655,
      "kaz": 656,
      "myś": 657,
      "tro": 658,
      "śmie": 659,
      "także": 660,
      "Sta": 661,
      "ns": 662,
      "szu": 663,
      "szych": 664,
      "gdzie": 665,
      "kiedy": 666,
      "ej": 667,
      "ha": 668,
      "okre": 669,
      "Le": 670,
      "cą": 671,
      "Przy": 672,
      "mniej": 673,
      "rem": 674,
      "zw": 675,
      "mar": 676,
      "Wie": 677,
      "nymi": 678,
      "więc": 679,
      "pis": 680,
      "ół": 681,
      "rodzi": 682,
      "mini": 683,
      "mę": 684,
      "zda": 685,
      "rek": 686,
      "osta": 687,
      "strze": 688,
      "każ": 689,
      "szo": 690,
      "orga": 691,
      "ników": 692,
      "wsze": 693,
      "szko": 694,
      "rwa": 695,
      "waż": 696,
      "powia": 697,
      "jedno": 698,
      "kach": 699,
      "dnia": 700,
      "jących": 701,
      "Mar": 702,
      "żeby": 703,
      "niż": 704,
      "row": 705,
      "umie": 706,
      "glą": 707,
      "Sz": 708,
      "tor": 709,
      "musi": 710,
      "łowie": 711,
      "pracy": 712,
      "Wi": 713,
      "nął": 714,
      "dać": 715,
      "kona": 716,
      "pier": 717,
      "cznej": 718,
      "stanowi": 719,
      "nas": 720,
      "tele": 721,
      "nale": 722,
      "Ta": 723,
      "er": 724,
      "żą": 725,
      "czyć": 726,
      "czej": 727,
      "Od": 728,
      "stawi": 729,
      "raj": 730,
      "których": 731,
      "stą": 732,
      "cej": 733,
      "bardziej": 734,
      "pierw": 735,
      "nek": 736,
      "nim": 737,
      "ciu": 738,
      "czywi": 739,
      "),": 740,
      "zwy": 741,
      "środ": 742,
      "sce": 743,
      "\",": 744,
      "chę": 745,
      "teraz": 746,
      "ństwa": 747,
      "coś": 748,
      "wał": 749,
      "wyda": 750,
      "przeci": 751,
      "pyta": 752,
      "odpowie": 753,
      "która": 754,
      "wiel": 755,
      "nich": 756,
      "infor": 757,
      "stos": 758,
      "dzenia": 759,
      "kro": 760,
      "An": 761,
      "ot": 762,
      "pani": 763,
      "tał": 764,
      "były": 765,
      "wać": 766,
      "którzy": 767,
      "dow": 768,
      "mó": 769,
      "miał": 770,
      "Co": 771,
      "zł": 772,
      "nicy": 773,
      "pisa": 774,
      "one": 775,
      "resz": 776,
      "scy": 777,
      "wą": 778,
      "decy": 779,
      "miast": 780,
      "liwo": 781,
      "dź": 782,
      "kla": 783,
      "woj": 784,
      "dwa": 785,
      "sji": 786,
      "mają": 787,
      "Jak": 788,
      "równie": 789,
      "Pi": 790,
      "zwią": 791,
      "Ty": 792,
      "hi": 793,
      "szej": 794,
      "stwa": 795,
      "między": 796,
      "organi": 797,
      "chu": 798,
      "ntów": 799,
      "tar": 800,
      "ster": 801,
      "kład": 802,
      "osob": 803,
      "ór": 804,
      "będą": 805,
      "przeciw": 806,
      "kow": 807,
      "tach": 808,
      "godzi": 809,
      "ali": 810,
      "oj": 811,
      "dł": 812,
      "czenia": 813,
      "logi": 814,
      "Pro": 815,
      "lnych": 816,
      "nku": 817,
      "znaj": 818,
      "War": 819,
      "gę": 820,
      "II": 821,
      "ścia": 822,
      "właśnie": 823,
      "również": 824,
      "czym": 825,
      "ród": 826,
      "zale": 827,
      "ską": 828,
      "preze": 829,
      "nau": 830,
      "właści": 831,
      "chwi": 832,
      "Re": 833,
      "ho": 834,
      "fun": 835,
      "stwo": 836,
      "By": 837,
      "takie": 838,
      "kilka": 839,
      "sły": 840,
      "tki": 841,
      "en": 842,
      "In": 843,
      "aby": 844,
      "mowa": 845,
      "wu": 846,
      "prowadzi": 847,
      "świe": 848,
      "ii": 849,
      "mina": 850,
      "trzyma": 851,
      "wszystko": 852,
      "ludzi": 853,
      "star": 854,
      "kowa": 855,
      "łam": 856,
      "szym": 857,
      "świad": 858,
      "nii": 859,
      "którym": 860,
      "powiedział": 861,
      "bym": 862,
      "publi": 863,
      "podob": 864,
      "ałam": 865,
      "tyw": 866,
      "czenie": 867,
      "nów": 868,
      "lnego": 869,
      "nios": 870,
      "ński": 871,
      "pró": 872,
      "now": 873,
      "poz": 874,
      "jakie": 875,
      "kolej": 876,
      "poda": 877,
      "szego": 878,
      "oko": 879,
      "kami": 880,
      "obe": 881,
      "człowie": 882,
      "zach": 883,
      "dzieć": 884,
      "tury": 885,
      "trzeba": 886,
      "lem": 887,
      "woje": 888,
      "zrobi": 889,
      "cznego": 890,
      "bezpie": 891,
      "trz": 892,
      "chci": 893,
      "200": 894,
      "ur": 895,
      "mam": 896,
      "twier": 897,
      "lny": 898,
      "czyli": 899,
      "Pod": 900,
      "włas": 901,
      "wal": 902,
      "więcej": 903,
      "nić": 904,
      "owią": 905,
      "głos": 906,
      "gospo": 907,
      "wę": 908,
      "ód": 909,
      "moc": 910,
      "szcza": 911,
      "nem": 912,
      "tedy": 913,
      "łod": 914,
      "zmie": 915,
      "szło": 916,
      "czył": 917,
      "prezy": 918,
      "pierwszy": 919,
      "bywa": 920,
      "szczę": 921,
      "ul": 922,
      "dzieci": 923,
      "korzy": 924,
      "żeli": 925,
      "rozumie": 926,
      "wiem": 927,
      "rozpo": 928,
      "jem": 929,
      "rywa": 930,
      "grani": 931,
      "lności": 932,
      "nk": 933,
      "zacji": 934,
      "dem": 935,
      "jaki": 936,
      "Pra": 937,
      "drze": 938,
      "dia": 939,
      "Tak": 940,
      "fo": 941,
      "trafi": 942,
      "Sa": 943,
      "cał": 944,
      "mat": 945,
      "obowią": 946,
      "ciąg": 947,
      "taj": 948,
      "albo": 949,
      "Dla": 950,
      "yy": 951,
      "domo": 952,
      "cją": 953,
      "ele": 954,
      "fir": 955,
      "bro": 956,
      "nta": 957,
      "czny": 958,
      "proce": 959,
      "zasa": 960,
      "róci": 961,
      "sprawie": 962,
      "lnej": 963,
      "ogó": 964,
      "chce": 965,
      "osób": 966,
      "życie": 967,
      "czywiście": 968,
      "zgo": 969,
      "kości": 970,
      "czoraj": 971,
      "bor": 972,
      "nowa": 973,
      "intere": 974,
      "nam": 975,
      "lej": 976,
      "powod": 977,
      "siebie": 978,
      "lep": 979,
      "dek": 980,
      "cież": 981,
      "sił": 982,
      "szczegó": 983,
      "kró": 984,
      "kobie": 985,
      "niego": 986,
      "tku": 987,
      "Warsza": 988,
      "taki": 989,
      "społe": 990,
      "pracow": 991,
      "chyba": 992,
      "dzien": 993,
      "wej": 994,
      "No": 995,
      "oba": 996,
      "póź": 997,
      "ani": 998,
      "cach": 999,
      "sp": 1000,
      "rak": 1001,
      "wiesz": 1002,
      "tua": 1003,
      "sób": 1004,
      "poś": 1005,
      "bior": 1006,
      "powin": 1007,
      "życia": 1008,
      "Jest": 1009,
      "We": 1010,
      "sam": 1011,
      "wój": 1012,
      "komu": 1013,
      "maga": 1014,
      "stanie": 1015,
      "Ni": 1016,
      "progra": 1017,
      "Naj": 1018,
      "199": 1019,
      "stru": 1020,
      "jedy": 1021,
      "ofi": 1022,
      "tel": 1023,
      "Bi": 1024,
      "gar": 1025,
      "uli": 1026,
      "nąć": 1027,
      "Polsce": 1028,
      "dobrze": 1029,
      "Pan": 1030,
      "pozy": 1031,
      "dzenie": 1032,
      "dziec": 1033,
      "dej": 1034,
      "ust": 1035,
      "obie": 1036,
      "ksią": 1037,
      "pamię": 1038,
      "staw": 1039,
      "piero": 1040,
      "sposób": 1041,
      "tery": 1042,
      "informa": 1043,
      "zdo": 1044,
      "ścią": 1045,
      "glę": 1046,
      "chro": 1047,
      "zja": 1048,
      "jemy": 1049,
      "mery": 1050,
      "biera": 1051,
      "nki": 1052,
      "obec": 1053,
      "wyso": 1054,
      "zio": 1055,
      "10": 1056,
      "usz": 1057,
      "chi": 1058,
      "potrze": 1059,
      "wiele": 1060,
      "ser": 1061,
      "warto": 1062,
      "ad": 1063,
      "sek": 1064,
      "sytua": 1065,
      "której": 1066,
      "owane": 1067,
      "kur": 1068,
      "art": 1069,
      "prob": 1070,
      "komi": 1071,
      "powiada": 1072,
      "rowi": 1073,
      "Euro": 1074,
      "lega": 1075,
      "dal": 1076,
      "per": 1077,
      "żad": 1078,
      "ój": 1079,
      "domu": 1080,
      "Li": 1081,
      "żyć": 1082,
      "potem": 1083,
      "tys": 1084,
      "wzglę": 1085,
      "auto": 1086,
      "Kie": 1087,
      "wyż": 1088,
      "wania": 1089,
      "żej": 1090,
      "15": 1091,
      "ren": 1092,
      "kilku": 1093,
      "18": 1094,
      "Lu": 1095,
      "ony": 1096,
      "cki": 1097,
      "wali": 1098,
      "wra": 1099,
      "zm": 1100,
      "licz": 1101,
      "współ": 1102,
      "powo": 1103,
      "fina": 1104,
      "el": 1105,
      "lek": 1106,
      "pita": 1107,
      "padku": 1108,
      "kont": 1109,
      "ner": 1110,
      "poja": 1111,
      "okreś": 1112,
      "ńskiego": 1113,
      "konie": 1114,
      "zawsze": 1115,
      "wych": 1116,
      "fil": 1117,
      "mał": 1118,
      "dał": 1119,
      "wtedy": 1120,
      "got": 1121,
      "cych": 1122,
      "został": 1123,
      "rach": 1124,
      "ostatni": 1125,
      "stów": 1126,
      "obra": 1127,
      "mogą": 1128,
      "gospodar": 1129,
      "Mie": 1130,
      "pli": 1131,
      "doty": 1132,
      "wszystkich": 1133,
      "jeden": 1134,
      "innych": 1135,
      "stępu": 1136,
      "zji": 1137,
      "tłu": 1138,
      "temu": 1139,
      "śniej": 1140,
      "stąpi": 1141,
      "sów": 1142,
      "wcze": 1143,
      "nosi": 1144,
      "dzię": 1145,
      "miała": 1146,
      "chni": 1147,
      "Go": 1148,
      "spotka": 1149,
      "śmier": 1150,
      "świat": 1151,
      "Wo": 1152,
      "nach": 1153,
      "rok": 1154,
      "tura": 1155,
      "razem": 1156,
      "cę": 1157,
      "owany": 1158,
      "krzy": 1159,
      "proje": 1160,
      "liwości": 1161,
      "ponad": 1162,
      "dzę": 1163,
      "rzenia": 1164,
      "Gdy": 1165,
      "dwó": 1166,
      "kura": 1167,
      "sem": 1168,
      "czasu": 1169,
      "cznym": 1170,
      "zwo": 1171,
      "owała": 1172,
      "czyn": 1173,
      "choć": 1174,
      "produ": 1175,
      "specja": 1176,
      "dra": 1177,
      "czyna": 1178,
      "przedstawi": 1179,
      "sław": 1180,
      "mal": 1181,
      "ciem": 1182,
      "każdy": 1183,
      "ist": 1184,
      "okaz": 1185,
      "przyja": 1186,
      "państ": 1187,
      "30": 1188,
      "poko": 1189,
      "dom": 1190,
      "swoje": 1191,
      "jestem": 1192,
      "menta": 1193,
      "Wa": 1194,
      "przecież": 1195,
      "dzia": 1196,
      "szyb": 1197,
      "skła": 1198,
      "Pie": 1199,
      "dził": 1200,
      "żenie": 1201,
      "którego": 1202,
      "12": 1203,
      "żenia": 1204,
      "minu": 1205,
      "trud": 1206,
      "kowi": 1207,
      "głów": 1208,
      "mor": 1209,
      "Ba": 1210,
      "dów": 1211,
      "dwie": 1212,
      "dług": 1213,
      "Ju": 1214,
      "czną": 1215,
      "jeśli": 1216,
      "uży": 1217,
      "chło": 1218,
      "doda": 1219,
      "zuje": 1220,
      "óż": 1221,
      "począ": 1222,
      "politycz": 1223,
      "Dz": 1224,
      "sprze": 1225,
      "spół": 1226,
      "uje": 1227,
      "wczoraj": 1228,
      "czni": 1229,
      "dwóch": 1230,
      "pę": 1231,
      "ucze": 1232,
      "czna": 1233,
      "owali": 1234,
      "Polski": 1235,
      "cały": 1236,
      "całe": 1237,
      "wem": 1238,
      "nił": 1239,
      "owę": 1240,
      "por": 1241,
      "kol": 1242,
      "ment": 1243,
      "związ": 1244,
      "tera": 1245,
      "drugie": 1246,
      "gnie": 1247,
      "kcji": 1248,
      "żczy": 1249,
      "lan": 1250,
      "lar": 1251,
      "pana": 1252,
      "polity": 1253,
      "kty": 1254,
      "szedł": 1255,
      "stytu": 1256,
      "śród": 1257,
      "dzień": 1258,
      "wszystkim": 1259,
      "che": 1260,
      "tygo": 1261,
      "proc": 1262,
      "Jed": 1263,
      "jącego": 1264,
      "Cze": 1265,
      "arty": 1266,
      "lnym": 1267,
      "sięcy": 1268,
      "wielu": 1269,
      "wer": 1270,
      "ktor": 1271,
      "stał": 1272,
      "para": 1273,
      "sło": 1274,
      ".,": 1275,
      "20": 1276,
      "miejsce": 1277,
      "czło": 1278,
      "min": 1279,
      "ustawy": 1280,
      "Bu": 1281,
      "man": 1282,
      "Może": 1283,
      "udział": 1284,
      "kosz": 1285,
      "pią": 1286,
      "łów": 1287,
      "try": 1288,
      "czki": 1289,
      "dzić": 1290,
      "muje": 1291,
      "wódz": 1292,
      "Komi": 1293,
      "młod": 1294,
      "ple": 1295,
      "ształ": 1296,
      "part": 1297,
      "uważa": 1298,
      "wego": 1299,
      "mógł": 1300,
      "rzecz": 1301,
      "wyra": 1302,
      "czasie": 1303,
      "chodzą": 1304,
      "miasta": 1305,
      "czeka": 1306,
      "trochę": 1307,
      "cił": 1308,
      "waru": 1309,
      "wiadomo": 1310,
      "pełnie": 1311,
      "oni": 1312,
      "mysł": 1313,
      "obro": 1314,
      "wszystkie": 1315,
      "nato": 1316,
      "lepie": 1317,
      "dań": 1318,
      "der": 1319,
      "pej": 1320,
      "żył": 1321,
      "ktoś": 1322,
      "możli": 1323,
      "cent": 1324,
      "gen": 1325,
      "zwyk": 1326,
      "nków": 1327,
      "wanie": 1328,
      "lni": 1329,
      "masz": 1330,
      "finans": 1331,
      "wnios": 1332,
      "naz": 1333,
      "nami": 1334,
      "mach": 1335,
      "Pola": 1336,
      "Kon": 1337,
      "stać": 1338,
      "myśl": 1339,
      "prawdę": 1340,
      "Dzie": 1341,
      "powa": 1342,
      "dania": 1343,
      "kul": 1344,
      "prawa": 1345,
      "prostu": 1346,
      "Ku": 1347,
      "Sej": 1348,
      "om": 1349,
      "zawod": 1350,
      "wyja": 1351,
      "Be": 1352,
      "klu": 1353,
      "mian": 1354,
      "czych": 1355,
      "Kto": 1356,
      "miec": 1357,
      "wór": 1358,
      "So": 1359,
      "znaczy": 1360,
      "gą": 1361,
      "mili": 1362,
      "stawie": 1363,
      "Są": 1364,
      "kształ": 1365,
      "nęła": 1366,
      "Dzię": 1367,
      "lecz": 1368,
      "państwa": 1369,
      "sami": 1370,
      "lno": 1371,
      "żu": 1372,
      "kaza": 1373,
      "mawia": 1374,
      "myśli": 1375,
      "west": 1376,
      "sja": 1377,
      "ponie": 1378,
      "dziś": 1379,
      "Jeśli": 1380,
      "słucha": 1381,
      "Se": 1382,
      "pom": 1383,
      "narod": 1384,
      "meryka": 1385,
      "Pre": 1386,
      "at": 1387,
      "ndy": 1388,
      "wnę": 1389,
      "robo": 1390,
      "prawo": 1391,
      "dniu": 1392,
      "wen": 1393,
      "najmniej": 1394,
      "ministra": 1395,
      "szka": 1396,
      "cić": 1397,
      "długo": 1398,
      "towarzy": 1399,
      "później": 1400,
      "Ry": 1401,
      "spa": 1402,
      "dach": 1403,
      "tutaj": 1404,
      "wspó": 1405,
      "ml": 1406,
      "świę": 1407,
      "owski": 1408,
      "bec": 1409,
      "powi": 1410,
      "zaj": 1411,
      "policja": 1412,
      "oby": 1413,
      "wska": 1414,
      "podej": 1415,
      "byt": 1416,
      "ode": 1417,
      "razie": 1418,
      "bą": 1419,
      "dało": 1420,
      "kierow": 1421,
      "mą": 1422,
      "wski": 1423,
      "zmu": 1424,
      "rami": 1425,
      "Poli": 1426,
      "czasem": 1427,
      "aż": 1428,
      "szczy": 1429,
      "jąca": 1430,
      "prawie": 1431,
      "należy": 1432,
      "gów": 1433,
      "tyle": 1434,
      "kuję": 1435,
      "doku": 1436,
      "gląda": 1437,
      "dzieli": 1438,
      "ludzie": 1439,
      "nera": 1440,
      "lna": 1441,
      "mężczy": 1442,
      "głę": 1443,
      "gła": 1444,
      "mieć": 1445,
      "same": 1446,
      "krę": 1447,
      "oce": 1448,
      "dowa": 1449,
      "czar": 1450,
      "szan": 1451,
      "jeste": 1452,
      "zmia": 1453,
      "powiedzieć": 1454,
      "Mu": 1455,
      "pomo": 1456,
      "dziesią": 1457,
      "ciel": 1458,
      "przyję": 1459,
      "inne": 1460,
      "Mini": 1461,
      "wcześniej": 1462,
      "strzy": 1463,
      "funk": 1464,
      "nowe": 1465,
      "lata": 1466,
      "ono": 1467,
      "uch": 1468,
      "wróci": 1469,
      "nar": 1470,
      "leka": 1471,
      "lenia": 1472,
      "Ce": 1473,
      "wpły": 1474,
      "zapew": 1475,
      "prawi": 1476,
      "jakby": 1477,
      "kraju": 1478,
      "Bar": 1479,
      "Jan": 1480,
      "IE": 1481,
      "temat": 1482,
      "reali": 1483,
      "loka": 1484,
      "Wła": 1485,
      "grze": 1486,
      "lepiej": 1487,
      "zwie": 1488,
      "nuje": 1489,
      "strony": 1490,
      "SA": 1491,
      "jech": 1492,
      "Cho": 1493,
      "ile": 1494,
      "kół": 1495,
      "rad": 1496,
      "pera": 1497,
      "mieszkań": 1498,
      "Dzi": 1499,
      "am": 1500,
      "he": 1501,
      "sę": 1502,
      "rum": 1503,
      "dent": 1504,
      "prezyden": 1505,
      "16": 1506,
      "Wszy": 1507,
      "tow": 1508,
      "uzna": 1509,
      "żar": 1510,
      "książ": 1511,
      "lną": 1512,
      "dziew": 1513,
      "cjona": 1514,
      "podczas": 1515,
      "rządu": 1516,
      "Rze": 1517,
      "ina": 1518,
      "łym": 1519,
      "dwu": 1520,
      "np": 1521,
      "czer": 1522,
      "telewi": 1523,
      "De": 1524,
      "drz": 1525,
      "iż": 1526,
      "ńskiej": 1527,
      "następ": 1528,
      "syj": 1529,
      "jącej": 1530,
      "siada": 1531,
      "interes": 1532,
      "istnie": 1533,
      "takich": 1534,
      "ckiego": 1535,
      "gry": 1536,
      "strz": 1537,
      "stwier": 1538,
      "przykład": 1539,
      "części": 1540,
      "służ": 1541,
      "krót": 1542,
      "zam": 1543,
      "byli": 1544,
      "twie": 1545,
      "nigdy": 1546,
      "cego": 1547,
      "owiem": 1548,
      "jącym": 1549,
      "50": 1550,
      "bry": 1551,
      "chwili": 1552,
      "dlatego": 1553,
      "skar": 1554,
      "premie": 1555,
      "zależ": 1556,
      "lność": 1557,
      "tne": 1558,
      "szpita": 1559,
      "rzeczy": 1560,
      "cen": 1561,
      "dysku": 1562,
      "jednym": 1563,
      "gle": 1564,
      "śnia": 1565,
      "języ": 1566,
      "sprawa": 1567,
      "Ros": 1568,
      "taka": 1569,
      "nością": 1570,
      "wiąza": 1571,
      "Andrze": 1572,
      "kontro": 1573,
      "oczy": 1574,
      "kraj": 1575,
      "chciał": 1576,
      "śla": 1577,
      "noc": 1578,
      "inter": 1579,
      "trwa": 1580,
      "letni": 1581,
      "dalej": 1582,
      "nor": 1583,
      "przej": 1584,
      "czone": 1585,
      "jakiś": 1586,
      "opi": 1587,
      "ura": 1588,
      "łę": 1589,
      "pozna": 1590,
      "jeżeli": 1591,
      "redni": 1592,
      "czes": 1593,
      "obraz": 1594,
      "świata": 1595,
      "ństwo": 1596,
      "odpowiedzi": 1597,
      "około": 1598,
      "gna": 1599,
      "mło": 1600,
      "naprawdę": 1601,
      "dopiero": 1602,
      "pada": 1603,
      "cieka": 1604,
      "została": 1605,
      "Kiedy": 1606,
      "księ": 1607,
      "pozosta": 1608,
      "wym": 1609,
      "proszę": 1610,
      "mio": 1611,
      "miesią": 1612,
      "grafi": 1613,
      "rii": 1614,
      "pięk": 1615,
      "większo": 1616,
      "jakieś": 1617,
      "17": 1618,
      "Ci": 1619,
      "zę": 1620,
      "zało": 1621,
      "stem": 1622,
      "szał": 1623,
      "mater": 1624,
      "wiek": 1625,
      "coraz": 1626,
      "siaj": 1627,
      "Pe": 1628,
      "SL": 1629,
      "przyzna": 1630,
      "met": 1631,
      "znale": 1632,
      "swoich": 1633,
      "daje": 1634,
      "bio": 1635,
      "często": 1636,
      "śle": 1637,
      "tami": 1638,
      "miejsc": 1639,
      "Tu": 1640,
      "mod": 1641,
      "urzę": 1642,
      "zoba": 1643,
      "sztu": 1644,
      "miło": 1645,
      "jęcia": 1646,
      "proble": 1647,
      "takiego": 1648,
      "kieru": 1649,
      "pił": 1650,
      "jącą": 1651,
      "samochod": 1652,
      "Fran": 1653,
      "Krzy": 1654,
      "poza": 1655,
      "miar": 1656,
      "czek": 1657,
      "pia": 1658,
      "cami": 1659,
      "nowo": 1660,
      "mamy": 1661,
      "dużo": 1662,
      "sen": 1663,
      "związa": 1664,
      "mało": 1665,
      "słowa": 1666,
      "ogóle": 1667,
      "kło": 1668,
      "regu": 1669,
      "samy": 1670,
      "minister": 1671,
      "ti": 1672,
      "Ży": 1673,
      "pole": 1674,
      "posł": 1675,
      "czeń": 1676,
      "tłuma": 1677,
      "twór": 1678,
      "wybor": 1679,
      "spoko": 1680,
      "kli": 1681,
      "wykorzy": 1682,
      "duje": 1683,
      "wspo": 1684,
      "żd": 1685,
      "latach": 1686,
      "cieli": 1687,
      "przyj": 1688,
      "seł": 1689,
      "wykona": 1690,
      "nictwa": 1691,
      "stor": 1692,
      "mil": 1693,
      "rej": 1694,
      "czyta": 1695,
      "pytanie": 1696,
      "potrzeb": 1697,
      "uzy": 1698,
      "cer": 1699,
      "stawia": 1700,
      "zawie": 1701,
      "rzyć": 1702,
      "dyre": 1703,
      "budże": 1704,
      "Ze": 1705,
      "bowiem": 1706,
      "cem": 1707,
      "My": 1708,
      "lenie": 1709,
      "najbardziej": 1710,
      "14": 1711,
      "oczywiście": 1712,
      "zostały": 1713,
      "miejscu": 1714,
      "dr": 1715,
      "eg": 1716,
      "wło": 1717,
      "śni": 1718,
      "tyka": 1719,
      "niach": 1720,
      "któw": 1721,
      "tuje": 1722,
      "prokura": 1723,
      "osoby": 1724,
      "cyjne": 1725,
      "pewno": 1726,
      "drugi": 1727,
      "nci": 1728,
      "kogo": 1729,
      "Niem": 1730,
      "charak": 1731,
      "dotyczą": 1732,
      "nka": 1733,
      "tom": 1734,
      "panie": 1735,
      "pienię": 1736,
      "przedsię": 1737,
      "wojewódz": 1738,
      "uczest": 1739,
      "wnętrz": 1740,
      "wybo": 1741,
      "stara": 1742,
      "reszcie": 1743,
      "sprzeda": 1744,
      "ozna": 1745,
      "którą": 1746,
      "wszyscy": 1747,
      "il": 1748,
      "listy": 1749,
      "przewod": 1750,
      "prowadzo": 1751,
      "Przed": 1752,
      "poważ": 1753,
      "Spo": 1754,
      "zamie": 1755,
      "owaniu": 1756,
      "osie": 1757,
      "bieg": 1758,
      "tnych": 1759,
      "nikt": 1760,
      "zabra": 1761,
      "równo": 1762,
      "stety": 1763,
      "ciągu": 1764,
      "zwa": 1765,
      "stała": 1766,
      "porząd": 1767,
      "szar": 1768,
      "dobry": 1769,
      "histor": 1770,
      "13": 1771,
      "ńskich": 1772,
      "popraw": 1773,
      "gotowa": 1774,
      "jął": 1775,
      "pięć": 1776,
      "określo": 1777,
      "tp": 1778,
      "Jeżeli": 1779,
      "Or": 1780,
      "Woj": 1781,
      "han": 1782,
      "kony": 1783,
      "kuje": 1784,
      "dziesię": 1785,
      "tycznie": 1786,
      "Teraz": 1787,
      "Ar": 1788,
      "hu": 1789,
      "wskiego": 1790,
      "mówią": 1791,
      "dowo": 1792,
      "dość": 1793,
      "ktora": 1794,
      "ogro": 1795,
      "god": 1796,
      "demo": 1797,
      "Me": 1798,
      "nr": 1799,
      "opie": 1800,
      "sor": 1801,
      "dzisiaj": 1802,
      "Da": 1803,
      "Sie": 1804,
      "tre": 1805,
      "pat": 1806,
      "puszcza": 1807,
      "stosun": 1808,
      "mowy": 1809,
      "zdecy": 1810,
      "prowadza": 1811,
      "cyjnych": 1812,
      "mln": 1813,
      "jecha": 1814,
      "woli": 1815,
      "czaj": 1816,
      "liwość": 1817,
      "nadzie": 1818,
      "zaczę": 1819,
      "propo": 1820,
      "najwięk": 1821,
      "czony": 1822,
      "forma": 1823,
      "sytuacji": 1824,
      "ameryka": 1825,
      "tle": 1826,
      "zakoń": 1827,
      "cep": 1828,
      "ciele": 1829,
      "część": 1830,
      "człowieka": 1831,
      "Al": 1832,
      "prywa": 1833,
      "zbyt": 1834,
      "szcz": 1835,
      "rzył": 1836,
      "czyła": 1837,
      "obo": 1838,
      "Tym": 1839,
      "podobnie": 1840,
      "NA": 1841,
      "cka": 1842,
      "przypadku": 1843,
      "pisy": 1844,
      "Roz": 1845,
      ".:": 1846,
      "woła": 1847,
      "nienia": 1848,
      "zywa": 1849,
      "fika": 1850,
      "wro": 1851,
      "niku": 1852,
      "zaś": 1853,
      "wynika": 1854,
      "owana": 1855,
      "bia": 1856,
      "zek": 1857,
      "mówił": 1858,
      "gór": 1859,
      "kolwiek": 1860,
      "Dziękuję": 1861,
      "zła": 1862,
      "tur": 1863,
      "Ga": 1864,
      "dło": 1865,
      "zapa": 1866,
      "dam": 1867,
      "sach": 1868,
      "dlaczego": 1869,
      "złotych": 1870,
      "jedynie": 1871,
      "miny": 1872,
      "organiza": 1873,
      "zrobić": 1874,
      "bezpiecze": 1875,
      "11": 1876,
      "niki": 1877,
      "mienia": 1878,
      "pracu": 1879,
      "prawda": 1880,
      "zupełnie": 1881,
      "swoją": 1882,
      "tnia": 1883,
      "posta": 1884,
      "połu": 1885,
      "rzenie": 1886,
      "przede": 1887,
      "przysz": 1888,
      "szenia": 1889,
      "bur": 1890,
      "szuka": 1891,
      "państw": 1892,
      "tny": 1893,
      "niesie": 1894,
      "niczą": 1895,
      "pomina": 1896,
      "wobec": 1897,
      "szech": 1898,
      "stycz": 1899,
      "Jego": 1900,
      "ciaż": 1901,
      "swoim": 1902,
      "zdr": 1903,
      "Cie": 1904,
      "kwi": 1905,
      "psy": 1906,
      "licy": 1907,
      "mimo": 1908,
      "rew": 1909,
      "kupi": 1910,
      "blo": 1911,
      "dli": 1912,
      "ego": 1913,
      "zg": 1914,
      "potrafi": 1915,
      "rodza": 1916,
      "liza": 1917,
      "tysięcy": 1918,
      "cześnie": 1919,
      "szenie": 1920,
      "gdyby": 1921,
      "PR": 1922,
      "wów": 1923,
      "ńska": 1924,
      "niemiec": 1925,
      "wartości": 1926,
      "tna": 1927,
      "źnie": 1928,
      "sąd": 1929,
      "organiz": 1930,
      "Proszę": 1931,
      "człowiek": 1932,
      "nowych": 1933,
      "muzy": 1934,
      "pienią": 1935,
      "prawdzi": 1936,
      "mentu": 1937,
      "yyy": 1938,
      "euro": 1939,
      "otrzy": 1940,
      "chód": 1941,
      "rob": 1942,
      "len": 1943,
      "owanych": 1944,
      "wieku": 1945,
      "stop": 1946,
      "żony": 1947,
      "mogę": 1948,
      "wymaga": 1949,
      "cenia": 1950,
      "ludz": 1951,
      "dziennika": 1952,
      "wała": 1953,
      "rol": 1954,
      "cym": 1955,
      "czeniu": 1956,
      "lubi": 1957,
      "Panie": 1958,
      "wzro": 1959,
      ".)": 1960,
      "25": 1961,
      "zakła": 1962,
      "lacji": 1963,
      "trzech": 1964,
      "bliż": 1965,
      "koniec": 1966,
      "natomiast": 1967,
      "Wszyst": 1968,
      "wśród": 1969,
      "czka": 1970,
      "stało": 1971,
      "wice": 1972,
      "ckiej": 1973,
      "kł": 1974,
      "nien": 1975,
      "gii": 1976,
      "niejsze": 1977,
      "rzuca": 1978,
      "otwar": 1979,
      "Sy": 1980,
      "ograni": 1981,
      "łnie": 1982,
      "takim": 1983,
      "tytu": 1984,
      "przekona": 1985,
      "pun": 1986,
      "związku": 1987,
      "Cza": 1988,
      "danie": 1989,
      "mieniu": 1990,
      "jaką": 1991,
      "polskich": 1992,
      "końcu": 1993,
      "og": 1994,
      "ochro": 1995,
      "jeżd": 1996,
      "wicz": 1997,
      "obu": 1998,
      "szef": 1999,
      "elekt": 2000,
      "port": 2001,
      "liz": 2002,
      "wyj": 2003,
      "jednej": 2004,
      "prawdo": 2005,
      "śmierci": 2006,
      "ana": 2007,
      "ńczy": 2008,
      "raczej": 2009,
      "nocy": 2010,
      "papie": 2011,
      "oskar": 2012,
      "Kości": 2013,
      "zostanie": 2014,
      "firmy": 2015,
      "program": 2016,
      "Już": 2017,
      "pora": 2018,
      "rozu": 2019,
      "Minister": 2020,
      "drzwi": 2021,
      "brze": 2022,
      "wił": 2023,
      "inwe": 2024,
      "końca": 2025,
      "różnych": 2026,
      "Warszawie": 2027,
      "ab": 2028,
      "kwest": 2029,
      "swój": 2030,
      "przypad": 2031,
      "sobą": 2032,
      "nowy": 2033,
      "uda": 2034,
      "razy": 2035,
      "przewi": 2036,
      "cenie": 2037,
      "Wię": 2038,
      "cier": 2039,
      "znala": 2040,
      "sport": 2041,
      "puści": 2042,
      "lkoho": 2043,
      "trak": 2044,
      "km": 2045,
      "pozio": 2046,
      "tema": 2047,
      "wyłą": 2048,
      "patrzy": 2049,
      "mieli": 2050,
      "obej": 2051,
      "budy": 2052,
      "najlep": 2053,
      "akcji": 2054,
      "dobre": 2055,
      "198": 2056,
      "kiedyś": 2057,
      "środowi": 2058,
      "resztą": 2059,
      "obowiąz": 2060,
      "zwykle": 2061,
      "ide": 2062,
      "żona": 2063,
      "podstaw": 2064,
      "sobo": 2065,
      "tyczne": 2066,
      "szybko": 2067,
      "SLD": 2068,
      "Trze": 2069,
      "zakre": 2070,
      "zainteres": 2071,
      "syste": 2072,
      "jednego": 2073,
      "wody": 2074,
      "powodu": 2075,
      "100": 2076,
      "Kra": 2077,
      "ost": 2078,
      "kor": 2079,
      "sier": 2080,
      "Polska": 2081,
      "sprawy": 2082,
      "drodze": 2083,
      "pieniędzy": 2084,
      "przedsiębior": 2085,
      "Jo": 2086,
      "XV": 2087,
      "lod": 2088,
      "ng": 2089,
      "sma": 2090,
      "naszych": 2091,
      "chcą": 2092,
      "pomoc": 2093,
      "mii": 2094,
      "wystar": 2095,
      "rium": 2096,
      "miejsca": 2097,
      "cięż": 2098,
      "prób": 2099,
      "Iz": 2100,
      "nagro": 2101,
      "czwar": 2102,
      "poru": 2103,
      "zatru": 2104,
      "dokona": 2105,
      "wybra": 2106,
      "wido": 2107,
      "prasza": 2108,
      "owości": 2109,
      "Rady": 2110,
      "zamk": 2111,
      "isto": 2112,
      "ńskie": 2113,
      "poseł": 2114,
      "zostało": 2115,
      "uwagę": 2116,
      "Wiel": 2117,
      "świecie": 2118,
      "początku": 2119,
      "ener": 2120,
      "jaw": 2121,
      "rozwiąza": 2122,
      "czął": 2123,
      "ździe": 2124,
      "szto": 2125,
      "tora": 2126,
      "taką": 2127,
      "cjach": 2128,
      "śmiech": 2129,
      "nauczy": 2130,
      "lie": 2131,
      "wały": 2132,
      "poczu": 2133,
      "mer": 2134,
      "skrzy": 2135,
      "wzię": 2136,
      "giem": 2137,
      "dio": 2138,
      "ckie": 2139,
      "rady": 2140,
      "czonych": 2141,
      "tychczas": 2142,
      "stki": 2143,
      "niez": 2144,
      "cio": 2145,
      "ton": 2146,
      "widzi": 2147,
      "mentów": 2148,
      "duży": 2149,
      "swojej": 2150,
      "informacji": 2151,
      "pieniądze": 2152,
      "Mich": 2153,
      "naszej": 2154,
      "reli": 2155,
      "jakim": 2156,
      "celu": 2157,
      "przyszło": 2158,
      "przygotowa": 2159,
      "siedzi": 2160,
      "powiedziała": 2161,
      "menty": 2162,
      "sława": 2163,
      "obywa": 2164,
      "tniej": 2165,
      "ńskim": 2166,
      "cel": 2167,
      "Mam": 2168,
      "pracę": 2169,
      "samym": 2170,
      "Ru": 2171,
      "osią": 2172,
      "trza": 2173,
      "trw": 2174,
      "żał": 2175,
      "szła": 2176,
      "techni": 2177,
      "przestęp": 2178,
      "mencie": 2179,
      "ziemi": 2180,
      "win": 2181,
      "seksu": 2182,
      "dzięki": 2183,
      "alkoho": 2184,
      "sfe": 2185,
      "cztery": 2186,
      "posiada": 2187,
      "ciec": 2188,
      "rucho": 2189,
      "szek": 2190,
      "pełni": 2191,
      "Dlaczego": 2192,
      "powinien": 2193,
      "materi": 2194,
      "40": 2195,
      "Pow": 2196,
      "ck": 2197,
      "opła": 2198,
      "wca": 2199,
      "potwier": 2200,
      "kocha": 2201,
      "wić": 2202,
      "ściej": 2203,
      "chwilę": 2204,
      "Ge": 2205,
      "WS": 2206,
      "gre": 2207,
      "niedzie": 2208,
      "gor": 2209,
      "zaczyna": 2210,
      "powsta": 2211,
      "prote": 2212,
      "wojsk": 2213,
      "pracowników": 2214,
      "wraca": 2215,
      "prezydenta": 2216,
      "owano": 2217,
      "ryta": 2218,
      "strzega": 2219,
      "znaleź": 2220,
      "jrz": 2221,
      "ntu": 2222,
      "udało": 2223,
      "wraz": 2224,
      "dosta": 2225,
      "jaka": 2226,
      "genera": 2227,
      "mogli": 2228,
      "rowia": 2229,
      "Andrzej": 2230,
      "dwo": 2231,
      "tzw": 2232,
      "jedna": 2233,
      "pisał": 2234,
      "prowadzić": 2235,
      "Dy": 2236,
      "oka": 2237,
      "owały": 2238,
      "poło": 2239,
      "szkole": 2240,
      "ciela": 2241,
      "konta": 2242,
      "pierwsze": 2243,
      "III": 2244,
      "plo": 2245,
      "spi": 2246,
      "czkę": 2247,
      "porozumie": 2248,
      "dzwo": 2249,
      "dziw": 2250,
      "sym": 2251,
      "chociaż": 2252,
      "właszcza": 2253,
      "mówić": 2254,
      "działania": 2255,
      "każde": 2256,
      "wszel": 2257,
      "Szcze": 2258,
      "Au": 2259,
      "owało": 2260,
      "rosyj": 2261,
      "tymi": 2262,
      "cyjnej": 2263,
      "uzyska": 2264,
      "postęp": 2265,
      "owymi": 2266,
      "wód": 2267,
      "przeciwko": 2268,
      "struktu": 2269,
      "dziecko": 2270,
      "problem": 2271,
      "pomocy": 2272,
      "nkiem": 2273,
      "opera": 2274,
      "nadal": 2275,
      "net": 2276,
      "doświad": 2277,
      "obok": 2278,
      "piera": 2279,
      "będę": 2280,
      "żone": 2281,
      "Europej": 2282,
      "dowie": 2283,
      "ić": 2284,
      "ocze": 2285,
      "owskiego": 2286,
      "wane": 2287,
      "lam": 2288,
      "życiu": 2289,
      "suk": 2290,
      "działu": 2291,
      "działem": 2292,
      "Przez": 2293,
      "prezydent": 2294,
      "!!": 2295,
      "22": 2296,
      "ckich": 2297,
      "nowego": 2298,
      "pło": 2299,
      "trady": 2300,
      "drugiej": 2301,
      "młody": 2302,
      "Bie": 2303,
      "onych": 2304,
      "godz": 2305,
      "dale": 2306,
      "łych": 2307,
      "biega": 2308,
      "giel": 2309,
      "rodzin": 2310,
      "zgodnie": 2311,
      "Sto": 2312,
      "br": 2313,
      "dne": 2314,
      "fon": 2315,
      "tków": 2316,
      "utwo": 2317,
      "podo": 2318,
      "lił": 2319,
      "lewi": 2320,
      "miało": 2321,
      "nomi": 2322,
      "przygot": 2323,
      "ciąż": 2324,
      "Osta": 2325,
      "jnie": 2326,
      "wrze": 2327,
      "nimi": 2328,
      "teli": 2329,
      "pal": 2330,
      "polskiego": 2331,
      "Si": 2332,
      "fak": 2333,
      "oła": 2334,
      "rowe": 2335,
      "”.": 2336,
      "reda": 2337,
      "razu": 2338,
      "działalności": 2339,
      "mój": 2340,
      "nowu": 2341,
      "Par": 2342,
      "głu": 2343,
      "kój": 2344,
      "poka": 2345,
      "wyzna": 2346,
      "jąć": 2347,
      "prosi": 2348,
      "gan": 2349,
      "częściej": 2350,
      "Ten": 2351,
      "Jednak": 2352,
      "uka": 2353,
      "óg": 2354,
      "miały": 2355,
      "wymie": 2356,
      "znacznie": 2357,
      "rozmawia": 2358,
      "tąd": 2359,
      "bru": 2360,
      "eko": 2361,
      "jmy": 2362,
      "zje": 2363,
      "zała": 2364,
      "sti": 2365,
      "tyj": 2366,
      "anty": 2367,
      "pój": 2368,
      "feren": 2369,
      "ałeś": 2370,
      "riu": 2371,
      "mogła": 2372,
      "gdzieś": 2373,
      "odpowiedni": 2374,
      "znajo": 2375,
      "pokoju": 2376,
      "nazwi": 2377,
      "metrów": 2378,
      "hand": 2379,
      "Pu": 2380,
      "kowe": 2381,
      "ofe": 2382,
      "żołnie": 2383,
      "ol": 2384,
      "mistrz": 2385,
      "dziedzi": 2386,
      "skiem": 2387,
      "system": 2388,
      "godzin": 2389,
      "Sejm": 2390,
      "efe": 2391,
      "fra": 2392,
      "nasze": 2393,
      "litera": 2394,
      "tyki": 2395,
      "Nawet": 2396,
      "ręce": 2397,
      "warsza": 2398,
      "możliwości": 2399,
      "nione": 2400,
      "logii": 2401,
      "procent": 2402,
      "Według": 2403,
      "ponieważ": 2404,
      "kał": 2405,
      "sję": 2406,
      "poł": 2407,
      "tysią": 2408,
      "panu": 2409,
      "według": 2410,
      "meto": 2411,
      "konkur": 2412,
      "dziesiąt": 2413,
      "inaczej": 2414,
      "TO": 2415,
      "mował": 2416,
      "wreszcie": 2417,
      "zmar": 2418,
      "rzeczywi": 2419,
      "kandy": 2420,
      "dostęp": 2421,
      "dzeniu": 2422,
      "brak": 2423,
      "policji": 2424,
      "szkoły": 2425,
      "gląd": 2426,
      "mna": 2427,
      "opa": 2428,
      "szli": 2429,
      "leg": 2430,
      "takiej": 2431,
      "szył": 2432,
      "krotnie": 2433,
      "Tylko": 2434,
      "Dlatego": 2435,
      "ulicy": 2436,
      "Stra": 2437,
      "nió": 2438,
      "nikiem": 2439,
      "moje": 2440,
      "lony": 2441,
      "suje": 2442,
      "ber": 2443,
      "dawno": 2444,
      "klasy": 2445,
      "Piot": 2446,
      "społecze": 2447,
      "film": 2448,
      "każdym": 2449,
      "Bę": 2450,
      "Du": 2451,
      "powy": 2452,
      "profe": 2453,
      "powiedzi": 2454,
      "drogi": 2455,
      "kompu": 2456,
      "Cent": 2457,
      "Gra": 2458,
      "Jó": 2459,
      "Zie": 2460,
      "cła": 2461,
      "ke": 2462,
      "kwie": 2463,
      "zdu": 2464,
      "zję": 2465,
      "niec": 2466,
      "rea": 2467,
      "kup": 2468,
      "Jeszcze": 2469,
      "możemy": 2470,
      "będziemy": 2471,
      "zią": 2472,
      "łek": 2473,
      "pewnie": 2474,
      "osoba": 2475,
      "artyku": 2476,
      "niósł": 2477,
      "fran": 2478,
      "hm": 2479,
      "kr": 2480,
      "oto": 2481,
      "zgło": 2482,
      "wyją": 2483,
      "zespo": 2484,
      "robić": 2485,
      "kazał": 2486,
      "pisać": 2487,
      "szczęście": 2488,
      "całą": 2489,
      "całej": 2490,
      "Ob": 2491,
      "Su": 2492,
      "fu": 2493,
      "ks": 2494,
      "nieu": 2495,
      "lip": 2496,
      "dotychczas": 2497,
      "obse": 2498,
      "żyła": 2499,
      "cyjnego": 2500,
      "polskiej": 2501,
      "wydaje": 2502,
      "osobi": 2503,
      "możliwe": 2504,
      "wniosek": 2505,
      "pomni": 2506,
      "La": 2507,
      "USA": 2508,
      "bla": 2509,
      "bój": 2510,
      "mały": 2511,
      "nkach": 2512,
      "tkiem": 2513,
      "urzą": 2514,
      "ukła": 2515,
      "żna": 2516,
      "stwie": 2517,
      "lidar": 2518,
      "wypadku": 2519,
      "jas": 2520,
      "stej": 2521,
      "pierwszym": 2522,
      "żadnych": 2523,
      "mężczyz": 2524,
      "jesteś": 2525,
      "Krzyszto": 2526,
      "XI": 2527,
      "brzy": 2528,
      "spowod": 2529,
      "zaję": 2530,
      "zatrzyma": 2531,
      "rych": 2532,
      "ruch": 2533,
      "san": 2534,
      "innego": 2535,
      "prost": 2536,
      "najbliż": 2537,
      "mówię": 2538,
      "cyjny": 2539,
      "dii": 2540,
      "pierwszej": 2541,
      "rozpoczę": 2542,
      "uczu": 2543,
      "posa": 2544,
      "socja": 2545,
      "łego": 2546,
      "nięcie": 2547,
      "Był": 2548,
      "odpowiedzial": 2549,
      "dła": 2550,
      "lle": 2551,
      "posła": 2552,
      "dziła": 2553,
      "czerw": 2554,
      "mien": 2555,
      "duże": 2556,
      "powierz": 2557,
      "parla": 2558,
      "komuni": 2559,
      "oficja": 2560,
      "projekt": 2561,
      "partii": 2562,
      "Sena": 2563,
      "przewodniczą": 2564,
      "jeżdża": 2565,
      "inwesty": 2566,
      "23": 2567,
      "Zwią": 2568,
      "gli": 2569,
      "czności": 2570,
      "racji": 2571,
      "boga": 2572,
      "Pani": 2573,
      "padł": 2574,
      "mieszkania": 2575,
      "administra": 2576,
      "głównie": 2577,
      "jechał": 2578,
      "posłów": 2579,
      "oznacza": 2580,
      "sukce": 2581,
      "Unii": 2582,
      "leni": 2583,
      "tajem": 2584,
      "danych": 2585,
      "inę": 2586,
      "com": 2587,
      "jedną": 2588,
      "ałego": 2589,
      "60": 2590,
      "SZ": 2591,
      "eli": 2592,
      "zde": 2593,
      "naszego": 2594,
      "poprzed": 2595,
      "zaba": 2596,
      "zauwa": 2597,
      "wizy": 2598,
      "przezna": 2599,
      "Potem": 2600,
      "więzie": 2601,
      "niony": 2602,
      "sprawę": 2603,
      "zwycię": 2604,
      "kobiety": 2605,
      "mieszkańców": 2606,
      "ude": 2607,
      "zmian": 2608,
      "stały": 2609,
      "zaraz": 2610,
      "repreze": 2611,
      "stanu": 2612,
      "instytu": 2613,
      "fizy": 2614,
      "set": 2615,
      "stron": 2616,
      "źni": 2617,
      "stw": 2618,
      "koło": 2619,
      "ład": 2620,
      "widać": 2621,
      "sama": 2622,
      "powszech": 2623,
      "lud": 2624,
      "zebra": 2625,
      "konkre": 2626,
      "pośredni": 2627,
      "minut": 2628,
      "Wło": 2629,
      "raca": 2630,
      "zagro": 2631,
      "wan": 2632,
      "miesięcy": 2633,
      "równa": 2634,
      "pamięta": 2635,
      "chłop": 2636,
      "ucie": 2637,
      "niwer": 2638,
      "ciebie": 2639,
      "ściu": 2640,
      "eme": 2641,
      "wewnętrz": 2642,
      "197": 2643,
      "nięcia": 2644,
      "grupy": 2645,
      "Warszawy": 2646,
      "Miej": 2647,
      "eta": 2648,
      "wsi": 2649,
      "znowu": 2650,
      "kato": 2651,
      "ciał": 2652,
      "rego": 2653,
      "wio": 2654,
      "Stani": 2655,
      "rodziny": 2656,
      "należ": 2657,
      "wówczas": 2658,
      "europej": 2659,
      "KO": 2660,
      "Mów": 2661,
      "mną": 2662,
      "wró": 2663,
      "nienie": 2664,
      "poinfor": 2665,
      "zarzu": 2666,
      "pytania": 2667,
      "młodzie": 2668,
      "większość": 2669,
      "kandyda": 2670,
      "brz": 2671,
      "fał": 2672,
      "kowych": 2673,
      "kować": 2674,
      "swego": 2675,
      "zwłaszcza": 2676,
      "Że": 2677,
      "kart": 2678,
      "zapła": 2679,
      "zarówno": 2680,
      "dokła": 2681,
      "remo": 2682,
      "regi": 2683,
      "jach": 2684,
      "wielo": 2685,
      "głosu": 2686,
      "sługu": 2687,
      "łeś": 2688,
      "Każ": 2689,
      "terenie": 2690,
      "Bez": 2691,
      "Fun": 2692,
      "kle": 2693,
      "opowiada": 2694,
      "tować": 2695,
      "udzie": 2696,
      "uczni": 2697,
      "wzią": 2698,
      "nieść": 2699,
      "poży": 2700,
      "szla": 2701,
      "roli": 2702,
      "rzego": 2703,
      "zagrani": 2704,
      "wykony": 2705,
      "wala": 2706,
      "pali": 2707,
      "szyć": 2708,
      "tran": 2709,
      "trakt": 2710,
      "swojego": 2711,
      "stronę": 2712,
      "jakoś": 2713,
      "zdaniem": 2714,
      "Polaków": 2715,
      "szpitala": 2716,
      "Ha": 2717,
      "Kar": 2718,
      "TA": 2719,
      "ckim": 2720,
      "oświad": 2721,
      "minie": 2722,
      "rejest": 2723,
      "inny": 2724,
      "log": 2725,
      "rozpa": 2726,
      "podstawie": 2727,
      "choro": 2728,
      "ręcz": 2729,
      "wysokości": 2730,
      "komisji": 2731,
      "Gdań": 2732,
      "Zak": 2733,
      "cało": 2734,
      "mała": 2735,
      "nasz": 2736,
      "naście": 2737,
      "niech": 2738,
      "pomysł": 2739,
      "dola": 2740,
      "ciej": 2741,
      "innym": 2742,
      "innymi": 2743,
      "Narod": 2744,
      "gdyż": 2745,
      "Boże": 2746,
      "zmiany": 2747,
      "demokra": 2748,
      "Ho": 2749,
      "Słu": 2750,
      "gał": 2751,
      "ss": 2752,
      "uczy": 2753,
      "zą": 2754,
      "zresztą": 2755,
      "źle": 2756,
      "naszym": 2757,
      "szta": 2758,
      "ciała": 2759,
      "Pozna": 2760,
      "bel": 2761,
      "pełnia": 2762,
      "groma": 2763,
      "właściwie": 2764,
      "wojen": 2765,
      "całkowi": 2766,
      "zawiera": 2767,
      "porządku": 2768,
      "seksual": 2769,
      "Ste": 2770,
      "Sze": 2771,
      "ilo": 2772,
      "op": 2773,
      "otrzyma": 2774,
      "zdy": 2775,
      "Świa": 2776,
      "listo": 2777,
      "lizacji": 2778,
      "rzem": 2779,
      "kilo": 2780,
      "odkry": 2781,
      "przypomina": 2782,
      "lone": 2783,
      "sekre": 2784,
      "tychmiast": 2785,
      "zdra": 2786,
      "obecnie": 2787,
      "czerwo": 2788,
      "zdecyd": 2789,
      "dokładnie": 2790,
      "gminy": 2791,
      "jne": 2792,
      "pory": 2793,
      "zabi": 2794,
      "rozwi": 2795,
      "przedmio": 2796,
      "pyt": 2797,
      "tycznych": 2798,
      "histo": 2799,
      "stępuje": 2800,
      "Bardzo": 2801,
      "Ol": 2802,
      "Ws": 2803,
      "towi": 2804,
      "zdą": 2805,
      "koła": 2806,
      "wios": 2807,
      "odwie": 2808,
      "rynku": 2809,
      "rządza": 2810,
      "czona": 2811,
      "trudno": 2812,
      "głębo": 2813,
      "norma": 2814,
      "Urzę": 2815,
      "błę": 2816,
      "die": 2817,
      "emo": 2818,
      "grzy": 2819,
      "kwa": 2820,
      "knął": 2821,
      "nowi": 2822,
      "nagle": 2823,
      "stre": 2824,
      "poszu": 2825,
      "zawar": 2826,
      "przyczy": 2827,
      "skó": 2828,
      "granic": 2829,
      "zdrowia": 2830,
      "zdanie": 2831,
      "twierdzi": 2832,
      "pojawi": 2833,
      "Gdyby": 2834,
      "dodatk": 2835,
      "KA": 2836,
      "ogło": 2837,
      "ukry": 2838,
      "wstrzy": 2839,
      "gości": 2840,
      "kiwa": 2841,
      "wygra": 2842,
      "wam": 2843,
      "rój": 2844,
      "stego": 2845,
      "skute": 2846,
      "ałej": 2847,
      "tniego": 2848,
      "zwróci": 2849,
      "Tam": 2850,
      "organizacji": 2851,
      "Samo": 2852,
      "dziewczy": 2853,
      "francu": 2854,
      "Cz": 2855,
      "zrozumie": 2856,
      "śpie": 2857,
      "natychmiast": 2858,
      "daniem": 2859,
      "noszą": 2860,
      "mek": 2861,
      "stości": 2862,
      "najważ": 2863,
      "głowy": 2864,
      "dobra": 2865,
      "zują": 2866,
      "Marek": 2867,
      "polski": 2868,
      "grup": 2869,
      "ważne": 2870,
      "sierp": 2871,
      "80": 2872,
      "PO": 2873,
      "bó": 2874,
      "hy": 2875,
      "sje": 2876,
      "czność": 2877,
      "połą": 2878,
      "wywo": 2879,
      "wygląda": 2880,
      "moim": 2881,
      "duch": 2882,
      "głowę": 2883,
      "pisów": 2884,
      "Komisji": 2885,
      "osiąg": 2886,
      "Dob": 2887,
      "Kry": 2888,
      "NI": 2889,
      "Wczoraj": 2890,
      "usu": 2891,
      "uśmiech": 2892,
      "zbro": 2893,
      "ron": 2894,
      "odrzu": 2895,
      "muszą": 2896,
      "gach": 2897,
      "gaze": 2898,
      "okresie": 2899,
      "wojny": 2900,
      "centra": 2901,
      "jesteśmy": 2902,
      "stycznia": 2903,
      "history": 2904,
      "Wal": 2905,
      "niczego": 2906,
      "potę": 2907,
      "postanowi": 2908,
      "tacji": 2909,
      "maszy": 2910,
      "dami": 2911,
      "pytał": 2912,
      "adre": 2913,
      "rodzaju": 2914,
      "sobotę": 2915,
      "postawi": 2916,
      "ału": 2917,
      "rześci": 2918,
      "waża": 2919,
      "prowadzą": 2920,
      "Nic": 2921,
      "ostatnich": 2922,
      "wcale": 2923,
      "rześcija": 2924,
      "klie": 2925,
      "ld": 2926,
      "usłu": 2927,
      "łó": 2928,
      "doszło": 2929,
      "torów": 2930,
      "mieni": 2931,
      "prawia": 2932,
      "byłoby": 2933,
      "dłuż": 2934,
      "szczególnie": 2935,
      "He": 2936,
      "Oj": 2937,
      "Sza": 2938,
      "rtu": 2939,
      "roni": 2940,
      "rośli": 2941,
      "kam": 2942,
      "legło": 2943,
      "ciła": 2944,
      "mią": 2945,
      "odpowiada": 2946,
      "wek": 2947,
      "rować": 2948,
      "sprawo": 2949,
      "sprzę": 2950,
      "powinna": 2951,
      "Prezy": 2952,
      "kłopo": 2953,
      "historii": 2954,
      "Tru": 2955,
      "rano": 2956,
      "kacji": 2957,
      "wybu": 2958,
      "odda": 2959,
      "przynajmniej": 2960,
      "szero": 2961,
      "pienia": 2962,
      "podkre": 2963,
      "Jerzy": 2964,
      "okres": 2965,
      "pozwoli": 2966,
      "projektu": 2967,
      "nadzieję": 2968,
      "Józe": 2969,
      "kcja": 2970,
      "nowej": 2971,
      "utrzyma": 2972,
      "zni": 2973,
      "nieco": 2974,
      "zaczął": 2975,
      "torzy": 2976,
      "wieczo": 2977,
      "propozy": 2978,
      "szczenia": 2979,
      "działalność": 2980,
      "telefo": 2981,
      "zwyczaj": 2982,
      "dowod": 2983,
      "fundu": 2984,
      "względu": 2985,
      "okazji": 2986,
      "Solidar": 2987,
      "poniedział": 2988,
      "Adam": 2989,
      "dała": 2990,
      "usza": 2991,
      "sznie": 2992,
      "kana": 2993,
      "domi": 2994,
      "tetu": 2995,
      "dzieje": 2996,
      "dyna": 2997,
      "mieście": 2998,
      "stoi": 2999,
      "onów": 3000,
      "nęły": 3001,
      "zdję": 3002,
      "środków": 3003,
      "Bóg": 3004,
      "Hi": 3005,
      "PA": 3006,
      "drew": 3007,
      "imieniu": 3008,
      "pry": 3009,
      "łóż": 3010,
      "chcę": 3011,
      "zadowo": 3012,
      "nerw": 3013,
      "staje": 3014,
      "momencie": 3015,
      "cjon": 3016,
      "iną": 3017,
      "owałem": 3018,
      "Alek": 3019,
      "Boga": 3020,
      "międzynarod": 3021,
      "prócz": 3022,
      "Praw": 3023,
      "dziecka": 3024,
      "Trzeba": 3025,
      "AWS": 3026,
      "pl": 3027,
      "św": 3028,
      "dosko": 3029,
      "maja": 3030,
      "padek": 3031,
      "cywi": 3032,
      "sali": 3033,
      "niejszych": 3034,
      "rękę": 3035,
      "samego": 3036,
      "niedzielę": 3037,
      "Mia": 3038,
      "nawia": 3039,
      "nastąpi": 3040,
      "rom": 3041,
      "lić": 3042,
      "jakiego": 3043,
      "jakiej": 3044,
      "mojej": 3045,
      "wolno": 3046,
      "mują": 3047,
      "stych": 3048,
      "Jezu": 3049,
      "ciąga": 3050,
      "Kaczy": 3051,
      "samochód": 3052,
      "musiał": 3053,
      "telefon": 3054,
      "głosowania": 3055,
      "dyrektor": 3056,
      "jechać": 3057,
      "24": 3058,
      "Fi": 3059,
      "onu": 3060,
      "znów": 3061,
      "zorganiz": 3062,
      "Ła": 3063,
      "komen": 3064,
      "rezy": 3065,
      "czyło": 3066,
      "dziemy": 3067,
      "gani": 3068,
      "Niestety": 3069,
      "punk": 3070,
      "żonych": 3071,
      "Można": 3072,
      "twarz": 3073,
      "PiS": 3074,
      "znaleźć": 3075,
      "katoli": 3076,
      "27": 3077,
      "kowej": 3078,
      "smu": 3079,
      "tności": 3080,
      "Ślą": 3081,
      "średni": 3082,
      "rzeń": 3083,
      "zamiast": 3084,
      "typu": 3085,
      "wydaw": 3086,
      "wicza": 3087,
      "żek": 3088,
      "mart": 3089,
      "dają": 3090,
      "rybu": 3091,
      "siej": 3092,
      "styczne": 3093,
      "konku": 3094,
      "nictwo": 3095,
      "tworzy": 3096,
      "ktual": 3097,
      "myśle": 3098,
      "decyzji": 3099,
      "poświę": 3100,
      "Woje": 3101,
      "tygodni": 3102,
      "centrum": 3103,
      "Oczywiście": 3104,
      "wciąż": 3105,
      "owców": 3106,
      "niemal": 3107,
      "gorą": 3108,
      "zatrzy": 3109,
      "dane": 3110,
      "dzieści": 3111,
      "turze": 3112,
      "bierze": 3113,
      "194": 3114,
      "autor": 3115,
      "komunika": 3116,
      "religi": 3117,
      "ach": 3118,
      "cała": 3119,
      "gno": 3120,
      "poe": 3121,
      "tory": 3122,
      "owaniem": 3123,
      "dziel": 3124,
      "ruchu": 3125,
      "pisze": 3126,
      "sześć": 3127,
      "media": 3128,
      "ałek": 3129,
      "chodzić": 3130,
      "ostate": 3131,
      "jednocześnie": 3132,
      "wielki": 3133,
      "godziny": 3134,
      "pozwala": 3135,
      "chciała": 3136,
      "powinny": 3137,
      "ździer": 3138,
      "niwersy": 3139,
      "Ban": 3140,
      "gwa": 3141,
      "is": 3142,
      "zem": 3143,
      "nazywa": 3144,
      "tarza": 3145,
      "moja": 3146,
      "muszę": 3147,
      "Podob": 3148,
      "owia": 3149,
      "nęło": 3150,
      "góry": 3151,
      "mentar": 3152,
      "wielkie": 3153,
      "prowadził": 3154,
      "zmieni": 3155,
      "Dziś": 3156,
      "CK": 3157,
      "prz": 3158,
      "tnego": 3159,
      "zga": 3160,
      "zbior": 3161,
      "naci": 3162,
      "natura": 3163,
      "roze": 3164,
      "rzeczywiście": 3165,
      "kola": 3166,
      "wyco": 3167,
      "wyraz": 3168,
      "paździer": 3169,
      "wolu": 3170,
      "wokół": 3171,
      "mier": 3172,
      "obli": 3173,
      "sio": 3174,
      "grupa": 3175,
      "różni": 3176,
      "różne": 3177,
      "słysz": 3178,
      "programu": 3179,
      "Pierw": 3180,
      "Piotr": 3181,
      "Mówi": 3182,
      "aresz": 3183,
      "ujaw": 3184,
      "ńca": 3185,
      "mora": 3186,
      "rozmowy": 3187,
      "spodzie": 3188,
      "stole": 3189,
      "dzeń": 3190,
      "skoń": 3191,
      "Chy": 3192,
      "Wyso": 3193,
      "prezes": 3194,
      "ofiar": 3195,
      "premier": 3196,
      "abso": 3197,
      "wyłącznie": 3198,
      "czerwca": 3199,
      "Związ": 3200,
      "Ber": 3201,
      "Kwa": 3202,
      "PZ": 3203,
      "Wro": 3204,
      "prę": 3205,
      "uzasa": 3206,
      "wną": 3207,
      "zor": 3208,
      "czter": 3209,
      "niedo": 3210,
      "chrześcija": 3211,
      "pospo": 3212,
      "posie": 3213,
      "kolo": 3214,
      "żem": 3215,
      "byś": 3216,
      "mosfe": 3217,
      "powro": 3218,
      "drob": 3219,
      "Mari": 3220,
      "ojciec": 3221,
      "znajdu": 3222,
      "pozba": 3223,
      "spotkanie": 3224,
      "Preze": 3225,
      "Mię": 3226,
      "On": 3227,
      "dno": 3228,
      "fli": 3229,
      "har": 3230,
      "nce": 3231,
      "spie": 3232,
      "niczym": 3233,
      "ramach": 3234,
      "jesz": 3235,
      "kade": 3236,
      "wyobra": 3237,
      "wiał": 3238,
      "przeszło": 3239,
      "staro": 3240,
      "inni": 3241,
      "bank": 3242,
      "Niech": 3243,
      "owość": 3244,
      "świadomo": 3245,
      "stanowisko": 3246,
      "wąt": 3247,
      "informacje": 3248,
      "pojawia": 3249,
      "Policja": 3250,
      "Wszystko": 3251,
      "pospoli": 3252,
      "))": 3253,
      "Ne": 3254,
      "gwia": 3255,
      "kwo": 3256,
      "yhm": 3257,
      "liście": 3258,
      "kopa": 3259,
      "doj": 3260,
      "tali": 3261,
      "miałem": 3262,
      "owarzy": 3263,
      "rozwo": 3264,
      "spoj": 3265,
      "byłem": 3266,
      "tyczny": 3267,
      "stronie": 3268,
      "kowski": 3269,
      "Jestem": 3270,
      "członków": 3271,
      "premiera": 3272,
      "26": 3273,
      "RP": 3274,
      "jnych": 3275,
      "orze": 3276,
      "swe": 3277,
      "tó": 3278,
      "źniej": 3279,
      "niezależ": 3280,
      "niestety": 3281,
      "popu": 3282,
      "szczu": 3283,
      "koali": 3284,
      "widzę": 3285,
      "rozi": 3286,
      "mówie": 3287,
      "miasto": 3288,
      "rzad": 3289,
      "Przecież": 3290,
      "szczęśli": 3291,
      "powoła": 3292,
      "mężczyzna": 3293,
      "Myś": 3294,
      "Tymczasem": 3295,
      "Aleksan": 3296,
      "RA": 3297,
      "Wtedy": 3298,
      "cór": 3299,
      "krze": 3300,
      "pał": 3301,
      "lin": 3302,
      "likwi": 3303,
      "zatem": 3304,
      "teo": 3305,
      "matka": 3306,
      "pacje": 3307,
      "czyk": 3308,
      "ing": 3309,
      "spon": 3310,
      "formy": 3311,
      "prowadzenie": 3312,
      "budow": 3313,
      "ojca": 3314,
      "powinni": 3315,
      "21": 3316,
      "Głów": 3317,
      "Kraj": 3318,
      "fan": 3319,
      "tr": 3320,
      "ucz": 3321,
      "włą": 3322,
      "łał": 3323,
      "rado": 3324,
      "rację": 3325,
      "zasta": 3326,
      "mani": 3327,
      "przestrze": 3328,
      "wienia": 3329,
      "archi": 3330,
      "syn": 3331,
      "głową": 3332,
      "skoro": 3333,
      "kąd": 3334,
      "ziem": 3335,
      "polskim": 3336,
      "kredy": 3337,
      "określa": 3338,
      "kurat": 3339,
      "państwo": 3340,
      "atmosfe": 3341,
      "handl": 3342,
      "Krzysztof": 3343,
      "28": 3344,
      "Fa": 3345,
      "MA": 3346,
      "MO": 3347,
      "Szy": 3348,
      "zwięk": 3349,
      "szty": 3350,
      "szki": 3351,
      "cin": 3352,
      "ciół": 3353,
      "tarz": 3354,
      "ówki": 3355,
      "odci": 3356,
      "wiedział": 3357,
      "wiedzą": 3358,
      "ruje": 3359,
      "bisku": 3360,
      "bab": 3361,
      "będziesz": 3362,
      "słów": 3363,
      "skąd": 3364,
      "zmienia": 3365,
      "firma": 3366,
      "kobieta": 3367,
      "Europy": 3368,
      "wyraźnie": 3369,
      "zakresie": 3370,
      "Gru": 3371,
      "NIE": 3372,
      "Powie": 3373,
      "dba": 3374,
      "upraw": 3375,
      "ve": 3376,
      "zał": 3377,
      "ćwi": 3378,
      "nag": 3379,
      "nazw": 3380,
      "czał": 3381,
      "pobli": 3382,
      "łat": 3383,
      "przekaza": 3384,
      "owanego": 3385,
      "dywi": 3386,
      "mienie": 3387,
      "badania": 3388,
      "tycznej": 3389,
      "uroczy": 3390,
      "ekspe": 3391,
      "całym": 3392,
      "Rzecz": 3393,
      "sprawach": 3394,
      "Dru": 3395,
      "emi": 3396,
      "fla": 3397,
      "far": 3398,
      "kwia": 3399,
      "swej": 3400,
      "pocz": 3401,
      "zara": 3402,
      "wystąpi": 3403,
      "jakich": 3404,
      "mas": 3405,
      "mocy": 3406,
      "biegł": 3407,
      "sądu": 3408,
      "konsu": 3409,
      "nęli": 3410,
      "prowadzenia": 3411,
      "Kazi": 3412,
      "stanowią": 3413,
      "środka": 3414,
      "spę": 3415,
      "powinno": 3416,
      "skład": 3417,
      "warunki": 3418,
      "służby": 3419,
      "krwi": 3420,
      "RO": 3421,
      "Zbi": 3422,
      "her": 3423,
      "mować": 3424,
      "pkt": 3425,
      "sch": 3426,
      "Świę": 3427,
      "nicja": 3428,
      "pomy": 3429,
      "pokry": 3430,
      "kara": 3431,
      "zastęp": 3432,
      "nemu": 3433,
      "owanym": 3434,
      "prof": 3435,
      "medy": 3436,
      "studi": 3437,
      "pewne": 3438,
      "nionych": 3439,
      "myślę": 3440,
      "minist": 3441,
      "kultury": 3442,
      "telewizji": 3443,
      "budżet": 3444,
      "dziesięciu": 3445,
      "każdego": 3446,
      "Bra": 3447,
      "Ki": 3448,
      "jcie": 3449,
      "trą": 3450,
      "kata": 3451,
      "zakład": 3452,
      "wypad": 3453,
      "przeka": 3454,
      "wierzy": 3455,
      "prawy": 3456,
      "deł": 3457,
      "pisu": 3458,
      "szer": 3459,
      "podję": 3460,
      "rób": 3461,
      "Niemiec": 3462,
      "konstru": 3463,
      "bezrobo": 3464,
      "polskie": 3465,
      "Mimo": 3466,
      "wrażenie": 3467,
      "policjanci": 3468,
      "istnieje": 3469,
      "dyskusji": 3470,
      "kierunku": 3471,
      "uczestni": 3472,
      "praszam": 3473,
      "ekonomi": 3474,
      "Fe": 3475,
      "Kul": 3476,
      "ctwa": 3477,
      "dna": 3478,
      "itp": 3479,
      "ktyw": 3480,
      "oś": 3481,
      "pomiędzy": 3482,
      "zagra": 3483,
      "doro": 3484,
      "wycie": 3485,
      "wielko": 3486,
      "lot": 3487,
      "podło": 3488,
      "graf": 3489,
      "aktyw": 3490,
      "rząt": 3491,
      "konty": 3492,
      "formu": 3493,
      "Bogu": 3494,
      "znajduje": 3495,
      "gospoda": 3496,
      "realiz": 3497,
      "kontroli": 3498,
      "sierpnia": 3499,
      "CZ": 3500,
      "rki": 3501,
      "ria": 3502,
      "son": 3503,
      "wnie": 3504,
      "ńcu": 3505,
      "żan": 3506,
      "owni": 3507,
      "poch": 3508,
      "popar": 3509,
      "tet": 3510,
      "wają": 3511,
      "dziewię": 3512,
      "codzien": 3513,
      "siedem": 3514,
      "stek": 3515,
      "krai": 3516,
      "Jana": 3517,
      "możliwość": 3518,
      "tycznego": 3519,
      "Polskiej": 3520,
      "fabry": 3521,
      "mogły": 3522,
      "tkowo": 3523,
      "Szko": 3524,
      "należą": 3525,
      "kolejny": 3526,
      "broni": 3527,
      "kobiet": 3528,
      "okazało": 3529,
      "ogrom": 3530,
      "CKM": 3531,
      "??": 3532,
      "Czę": 3533,
      "kowo": 3534,
      "oli": 3535,
      "wki": 3536,
      "niektórych": 3537,
      "polega": 3538,
      "żeniem": 3539,
      "owanej": 3540,
      "odwoła": 3541,
      "mierz": 3542,
      "prakty": 3543,
      "weł": 3544,
      "władze": 3545,
      "konsek": 3546,
      "okrę": 3547,
      "Tade": 3548,
      "zależy": 3549,
      "Inter": 3550,
      "świet": 3551,
      "ostatnio": 3552,
      "spotkania": 3553,
      "pomocą": 3554,
      "Rosja": 3555,
      "środowiska": 3556,
      "fry": 3557,
      "kowie": 3558,
      "ocza": 3559,
      "ww": 3560,
      "zne": 3561,
      "kapi": 3562,
      "zachod": 3563,
      "wyglą": 3564,
      "lach": 3565,
      "kiewicz": 3566,
      "siły": 3567,
      "pić": 3568,
      "gami": 3569,
      "wiary": 3570,
      "skle": 3571,
      "najwyż": 3572,
      "zostać": 3573,
      "dowód": 3574,
      "scypli": 3575,
      "próbu": 3576,
      "kolejne": 3577,
      "foto": 3578,
      "obowiąza": 3579,
      "Pier": 3580,
      "cjonariu": 3581,
      "psycho": 3582,
      "kupić": 3583,
      "prawdopodobnie": 3584,
      "września": 3585,
      "70": 3586,
      "IA": 3587,
      "Zy": 3588,
      "ostro": 3589,
      "sj": 3590,
      "wskiej": 3591,
      "zmniej": 3592,
      "Ło": 3593,
      "nadz": 3594,
      "pomyśl": 3595,
      "tech": 3596,
      "wybiera": 3597,
      "wyniku": 3598,
      "wol": 3599,
      "dyplo": 3600,
      "meta": 3601,
      "angiel": 3602,
      "193": 3603,
      "pełno": 3604,
      "plan": 3605,
      "środku": 3606,
      "wątp": 3607,
      "sytuacja": 3608,
      "przyjaciół": 3609,
      "piątek": 3610,
      "Rosji": 3611,
      "ochrony": 3612,
      "Michał": 3613,
      "Między": 3614,
      "29": 3615,
      "Hu": 3616,
      "iz": 3617,
      "ufa": 3618,
      "kość": 3619,
      "wypła": 3620,
      "łach": 3621,
      "przepisy": 3622,
      "żyli": 3623,
      "Ponad": 3624,
      "bok": 3625,
      "rozm": 3626,
      "rozma": 3627,
      "sej": 3628,
      "władzy": 3629,
      "zim": 3630,
      "dzam": 3631,
      "grudnia": 3632,
      "stanowiska": 3633,
      "ściach": 3634,
      "zrobił": 3635,
      "firm": 3636,
      "pamiętam": 3637,
      "współczes": 3638,
      "Sejmu": 3639,
      "stosunku": 3640,
      "pracuje": 3641,
      "Wojewódz": 3642,
      "Chyba": 3643,
      "wnątrz": 3644,
      "rozwoju": 3645,
      "Ameryka": 3646,
      "idzie": 3647,
      "lta": 3648,
      "plu": 3649,
      "łowa": 3650,
      "poszczegó": 3651,
      "zabezpie": 3652,
      "wybi": 3653,
      "was": 3654,
      "pasa": 3655,
      "wiera": 3656,
      "wolności": 3657,
      "rusza": 3658,
      "Pana": 3659,
      "nięte": 3660,
      "druży": 3661,
      "wartość": 3662,
      "tygodniu": 3663,
      "Musi": 3664,
      "wpływ": 3665,
      "związane": 3666,
      "frag": 3667,
      "XIX": 3668,
      "poniedziałek": 3669,
      "Kró": 3670,
      "Spraw": 3671,
      "Zna": 3672,
      "fy": 3673,
      "pów": 3674,
      "nierucho": 3675,
      "zastos": 3676,
      "torium": 3677,
      "działy": 3678,
      "woda": 3679,
      "turę": 3680,
      "zeum": 3681,
      "skę": 3682,
      "szczenie": 3683,
      "ństwie": 3684,
      "głoś": 3685,
      "cyjna": 3686,
      "komór": 3687,
      "móc": 3688,
      "okoli": 3689,
      "Podczas": 3690,
      "chłopa": 3691,
      "krótce": 3692,
      "Gło": 3693,
      "Proku": 3694,
      "Tar": 3695,
      "dry": 3696,
      "gla": 3697,
      "imi": 3698,
      "oku": 3699,
      "tnej": 3700,
      "zbli": 3701,
      "świą": 3702,
      "nin": 3703,
      "poprzez": 3704,
      "lika": 3705,
      "wyżej": 3706,
      "wiedzy": 3707,
      "czem": 3708,
      "zer": 3709,
      "dzony": 3710,
      "ństw": 3711,
      "fakt": 3712,
      "kolei": 3713,
      "dencji": 3714,
      "drogę": 3715,
      "niom": 3716,
      "umowy": 3717,
      "rodziców": 3718,
      "Lud": 3719,
      "książki": 3720,
      "bezpieczeństwa": 3721,
      "Prokura": 3722,
      "grozi": 3723,
      "sh": 3724,
      "chle": 3725,
      "chcieli": 3726,
      "podzie": 3727,
      "żeń": 3728,
      "dzieścia": 3729,
      "ceny": 3730,
      "mości": 3731,
      "basa": 3732,
      "sieci": 3733,
      "stym": 3734,
      "najpierw": 3735,
      "dzeniem": 3736,
      "rowania": 3737,
      "słow": 3738,
      "impre": 3739,
      "prezent": 3740,
      "korzysta": 3741,
      "Dzięki": 3742,
      "charakter": 3743,
      "przyszłości": 3744,
      "Wrocła": 3745,
      "Zbignie": 3746,
      "90": 3747,
      "Han": 3748,
      "Ot": 3749,
      "TV": 3750,
      "pł": 3751,
      "pomaga": 3752,
      "jeź": 3753,
      "jesie": 3754,
      "godnie": 3755,
      "koście": 3756,
      "tale": 3757,
      "niami": 3758,
      "dzisiej": 3759,
      "parę": 3760,
      "wienie": 3761,
      "ciech": 3762,
      "gaż": 3763,
      "powiem": 3764,
      "którymi": 3765,
      "zwło": 3766,
      "ofia": 3767,
      "Mieszka": 3768,
      "całego": 3769,
      "osiem": 3770,
      "Kwaśnie": 3771,
      "Obec": 3772,
      "US": 3773,
      "Wia": 3774,
      "akurat": 3775,
      "dliwości": 3776,
      "ologi": 3777,
      "tkę": 3778,
      "uwzglę": 3779,
      "żnie": 3780,
      "rodek": 3781,
      "liczyć": 3782,
      "zawi": 3783,
      "cili": 3784,
      "nom": 3785,
      "przeło": 3786,
      "cek": 3787,
      "pras": 3788,
      "prace": 3789,
      "ruszy": 3790,
      "defi": 3791,
      "przyro": 3792,
      "wiam": 3793,
      "Następ": 3794,
      "Jeste": 3795,
      "słowo": 3796,
      "gieł": 3797,
      "kończy": 3798,
      "rozumiem": 3799,
      "małże": 3800,
      "Komisja": 3801,
      "budżetu": 3802,
      "dolarów": 3803,
      "Gie": 3804,
      "Wał": 3805,
      "atak": 3806,
      "jów": 3807,
      "oprac": 3808,
      "ńską": 3809,
      "owu": 3810,
      "stka": 3811,
      "szczą": 3812,
      "ładu": 3813,
      "byśmy": 3814,
      "ryzy": 3815,
      "stary": 3816,
      "siła": 3817,
      "orów": 3818,
      "ban": 3819,
      "gina": 3820,
      "samorząd": 3821,
      "czegoś": 3822,
      "pięciu": 3823,
      "placów": 3824,
      "zdania": 3825,
      "dniach": 3826,
      "Sam": 3827,
      "ciągle": 3828,
      "wencji": 3829,
      "mówiąc": 3830,
      "punktu": 3831,
      "wystarczy": 3832,
      "Europejskiej": 3833,
      "Two": 3834,
      "bły": 3835,
      "jny": 3836,
      "spad": 3837,
      "tną": 3838,
      "zbud": 3839,
      "kos": 3840,
      "kapita": 3841,
      "wyciąg": 3842,
      "dzili": 3843,
      "wiecz": 3844,
      "praca": 3845,
      "dekla": 3846,
      "pija": 3847,
      "czają": 3848,
      "mecha": 3849,
      "osen": 3850,
      "Nato": 3851,
      "numer": 3852,
      "Jako": 3853,
      "eks": 3854,
      "zostaną": 3855,
      "planowa": 3856,
      "jednostki": 3857,
      "wniosku": 3858,
      "egza": 3859,
      "młodych": 3860,
      "Urzędu": 3861,
      "popular": 3862,
      "35": 3863,
      "Bor": 3864,
      "bło": 3865,
      "klę": 3866,
      "opar": 3867,
      "wało": 3868,
      "zle": 3869,
      "niał": 3870,
      "lii": 3871,
      "dochod": 3872,
      "miesię": 3873,
      "obja": 3874,
      "piec": 3875,
      "lotni": 3876,
      "bom": 3877,
      "filo": 3878,
      "niejszy": 3879,
      "konfli": 3880,
      "skom": 3881,
      "Dopiero": 3882,
      "decyzję": 3883,
      "chcesz": 3884,
      "gospodarki": 3885,
      "drugiego": 3886,
      "polityki": 3887,
      "klubu": 3888,
      "samej": 3889,
      "trakcie": 3890,
      "kontakt": 3891,
      "wątpliwości": 3892,
      "Natomiast": 3893,
      "Gdzie": 3894,
      "Mos": 3895,
      "fal": 3896,
      "kcie": 3897,
      "odzy": 3898,
      "swych": 3899,
      "vi": 3900,
      "żon": 3901,
      "naro": 3902,
      "rzeć": 3903,
      "zapo": 3904,
      "sięg": 3905,
      "odu": 3906,
      "wien": 3907,
      "dentów": 3908,
      "żyw": 3909,
      "sub": 3910,
      "cjami": 3911,
      "Mary": 3912,
      "blisko": 3913,
      "Jaro": 3914,
      "gier": 3915,
      "rio": 3916,
      "twarzy": 3917,
      "rekla": 3918,
      "dwadzieścia": 3919,
      "Instytu": 3920,
      "pośle": 3921,
      "zjawi": 3922,
      "autobu": 3923,
      "Gospo": 3924,
      "większości": 3925,
      "wspomina": 3926,
      "poprawki": 3927,
      "postaci": 3928,
      "przewodniczący": 3929,
      "konkuren": 3930,
      ".),": 3931,
      "Gó": 3932,
      "Kil": 3933,
      "Nowa": 3934,
      "gda": 3935,
      "klub": 3936,
      "szkół": 3937,
      "wany": 3938,
      "wil": 3939,
      "papiero": 3940,
      "kują": 3941,
      "intele": 3942,
      "biu": 3943,
      "Poza": 3944,
      "badań": 3945,
      "boha": 3946,
      "spotk": 3947,
      "syła": 3948,
      "sygna": 3949,
      "rządzenia": 3950,
      "ręb": 3951,
      "jącymi": 3952,
      "świado": 3953,
      "blio": 3954,
      "nięty": 3955,
      "Chry": 3956,
      "budowy": 3957,
      "kryty": 3958,
      "marca": 3959,
      "każdej": 3960,
      "Marszał": 3961,
      "proces": 3962,
      "interesu": 3963,
      "śmierć": 3964,
      "bądź": 3965,
      "urzędni": 3966,
      "jakąś": 3967,
      "Centrum": 3968,
      "lipca": 3969,
      "300": 3970,
      "Trybu": 3971,
      "gwał": 3972,
      "lski": 3973,
      "pała": 3974,
      "wskim": 3975,
      "nastu": 3976,
      "cztere": 3977,
      "rolę": 3978,
      "koty": 3979,
      "konu": 3980,
      "zaga": 3981,
      "dor": 3982,
      "tea": 3983,
      "tan": 3984,
      "tyfika": 3985,
      "wynosi": 3986,
      "maj": 3987,
      "maty": 3988,
      "dali": 3989,
      "lać": 3990,
      "pach": 3991,
      "patrz": 3992,
      "czytel": 3993,
      "instru": 3994,
      "zespół": 3995,
      "znaczenie": 3996,
      "los": 3997,
      "sens": 3998,
      "stość": 3999,
      "Jej": 4000,
      "akcep": 4001,
      "budowę": 4002,
      "Nikt": 4003,
      "Europie": 4004,
      "głasza": 4005,
      "dotyczące": 4006,
      "dziesięć": 4007,
      "alkoholu": 4008,
      "postępowania": 4009,
      "żołnierzy": 4010,
      "powierzchni": 4011,
      "?!": 4012,
      "Cy": 4013,
      "Ser": 4014,
      "Tra": 4015,
      "ape": 4016,
      "tnym": 4017,
      "ubra": 4018,
      "zdaw": 4019,
      "poprze": 4020,
      "pozostały": 4021,
      "lina": 4022,
      "rzeniu": 4023,
      "miu": 4024,
      "wyro": 4025,
      "wysta": 4026,
      "wywia": 4027,
      "myka": 4028,
      "przyjem": 4029,
      "lona": 4030,
      "sportu": 4031,
      "najlepiej": 4032,
      "trzeć": 4033,
      "chodził": 4034,
      "Rada": 4035,
      "funda": 4036,
      "okolicz": 4037,
      "potrzebu": 4038,
      "żadnego": 4039,
      "miłości": 4040,
      "zdrowie": 4041,
      "znalazł": 4042,
      "struktury": 4043,
      "Hen": 4044,
      "Lo": 4045,
      "ST": 4046,
      "dka": 4047,
      "dłem": 4048,
      "onie": 4049,
      "tz": 4050,
      "umożli": 4051,
      "łowi": 4052,
      "pogo": 4053,
      "zanie": 4054,
      "miałam": 4055,
      "łatwie": 4056,
      "mag": 4057,
      "rozmów": 4058,
      "dusz": 4059,
      "róg": 4060,
      "powiedź": 4061,
      "czono": 4062,
      "konce": 4063,
      "terro": 4064,
      "ciężar": 4065,
      "podatk": 4066,
      "2000": 4067,
      "choćby": 4068,
      "robotni": 4069,
      "zamierza": 4070,
      "Więc": 4071,
      "Związku": 4072,
      ".).": 4073,
      "ble": 4074,
      "onego": 4075,
      "rował": 4076,
      "spó": 4077,
      "zdzi": 4078,
      "pomie": 4079,
      "zację": 4080,
      "lec": 4081,
      "wach": 4082,
      "żeniu": 4083,
      "daj": 4084,
      "przepisów": 4085,
      "rys": 4086,
      "moich": 4087,
      "bili": 4088,
      "boi": 4089,
      "serwa": 4090,
      "ałoby": 4091,
      "Jakie": 4092,
      "działam": 4093,
      "cyjną": 4094,
      "cyjnym": 4095,
      "zdjęcia": 4096,
      "dawna": 4097,
      "kompe": 4098,
      "pierwszego": 4099,
      "targ": 4100,
      "właściciel": 4101,
      "niosła": 4102,
      "pierwszych": 4103,
      "warunkach": 4104,
      "służb": 4105,
      "zobaczy": 4106,
      "problemy": 4107,
      "spokojnie": 4108,
      "prawdopodob": 4109,
      "emery": 4110,
      "Każdy": 4111,
      "Trudno": 4112,
      "dywidu": 4113,
      "filozo": 4114,
      "Agen": 4115,
      "Krak": 4116,
      "zmę": 4117,
      "nieważ": 4118,
      "przemysł": 4119,
      "dyscypli": 4120,
      "sil": 4121,
      "pil": 4122,
      "podlega": 4123,
      "bera": 4124,
      "owiec": 4125,
      "sługi": 4126,
      "łej": 4127,
      "dnienia": 4128,
      "wyjaś": 4129,
      "milionów": 4130,
      "Sąd": 4131,
      "ocenia": 4132,
      "województwa": 4133,
      "sprzedaży": 4134,
      "systemu": 4135,
      "materiał": 4136,
      "oczeki": 4137,
      "więzienia": 4138,
      "Łodzi": 4139,
      "Rów": 4140,
      "Zjedno": 4141,
      "bin": 4142,
      "nową": 4143,
      "sną": 4144,
      "zgu": 4145,
      "zbiera": 4146,
      "łka": 4147,
      "źli": 4148,
      "niebie": 4149,
      "ponow": 4150,
      "rzej": 4151,
      "dostar": 4152,
      "telu": 4153,
      "miot": 4154,
      "wypowiedzi": 4155,
      "waj": 4156,
      "wanych": 4157,
      "lami": 4158,
      "kupu": 4159,
      "czemu": 4160,
      "mun": 4161,
      "gram": 4162,
      "trans": 4163,
      "195": 4164,
      "uwagi": 4165,
      "zwro": 4166,
      "szone": 4167,
      "Wil": 4168,
      "walki": 4169,
      "zapewnia": 4170,
      "Wszyscy": 4171,
      "tytuł": 4172,
      "Czar": 4173,
      "jakaś": 4174,
      "symbo": 4175,
      "daleko": 4176,
      "listopada": 4177,
      "Ich": 4178,
      "SP": 4179,
      "Sło": 4180,
      "aha": 4181,
      "dny": 4182,
      "kcję": 4183,
      "krą": 4184,
      "wnio": 4185,
      "niesi": 4186,
      "niżej": 4187,
      "ięk": 4188,
      "kot": 4189,
      "macie": 4190,
      "ody": 4191,
      "indywidu": 4192,
      "lubu": 4193,
      "biały": 4194,
      "zywać": 4195,
      "syna": 4196,
      "angaż": 4197,
      "nume": 4198,
      "najczęściej": 4199,
      "wspani": 4200,
      "musiała": 4201,
      "środki": 4202,
      "panii": 4203,
      "Była": 4204,
      "nkowie": 4205,
      "całkiem": 4206,
      "pliwie": 4207,
      "produkcji": 4208,
      "kolor": 4209,
      "Jedno": 4210,
      "funkcjon": 4211,
      "czytać": 4212,
      "Niemcy": 4213,
      "Kościoła": 4214,
      "budynku": 4215,
      "podoba": 4216,
      "załat": 4217,
      "obserw": 4218,
      "Senatu": 4219,
      "października": 4220,
      "Chrystu": 4221,
      "El": 4222,
      "Py": 4223,
      "dował": 4224,
      "gnia": 4225,
      "idą": 4226,
      "kowy": 4227,
      "otwo": 4228,
      "ubieg": 4229,
      "świ": 4230,
      "źród": 4231,
      "”,": 4232,
      "chwy": 4233,
      "chem": 4234,
      "jedzie": 4235,
      "list": 4236,
      "zacja": 4237,
      "ciało": 4238,
      "kin": 4239,
      "wynik": 4240,
      "występu": 4241,
      "walu": 4242,
      "wiar": 4243,
      "przemy": 4244,
      "dziale": 4245,
      "mogło": 4246,
      "wiej": 4247,
      "czeniem": 4248,
      "ciera": 4249,
      "prag": 4250,
      "prak": 4251,
      "del": 4252,
      "gatu": 4253,
      "dzone": 4254,
      "kłada": 4255,
      "płaci": 4256,
      "długi": 4257,
      "dłużej": 4258,
      "drog": 4259,
      "kowskiego": 4260,
      "pracownicy": 4261,
      "zwierzę": 4262,
      "opinii": 4263,
      "tłumaczy": 4264,
      "drugim": 4265,
      "Izra": 4266,
      "Ostatni": 4267,
      "uczniów": 4268,
      "Krakowie": 4269,
      "Ada": 4270,
      "Grzego": 4271,
      "Księ": 4272,
      "Wśród": 4273,
      "it": 4274,
      "kała": 4275,
      "oszczę": 4276,
      "ubezpie": 4277,
      "zów": 4278,
      "zrozu": 4279,
      "napa": 4280,
      "niewiele": 4281,
      "połowie": 4282,
      "porówna": 4283,
      "szem": 4284,
      "zaka": 4285,
      "zawia": 4286,
      "terze": 4287,
      "łatwo": 4288,
      "jazd": 4289,
      "mojego": 4290,
      "cielem": 4291,
      "bile": 4292,
      "cony": 4293,
      "ałoru": 4294,
      "szacu": 4295,
      "sąsia": 4296,
      "koncer": 4297,
      "chać": 4298,
      "nicę": 4299,
      "długie": 4300,
      "dząc": 4301,
      "Rodzi": 4302,
      "zwraca": 4303,
      "ostatnie": 4304,
      "ostatniej": 4305,
      "własne": 4306,
      "własnej": 4307,
      "zasady": 4308,
      "biorą": 4309,
      "pozytyw": 4310,
      "zdoby": 4311,
      "liczba": 4312,
      "realizacji": 4313,
      "Chodzi": 4314,
      "dyrektora": 4315,
      "Kobie": 4316,
      "apara": 4317,
      "dować": 4318,
      "inicja": 4319,
      "nne": 4320,
      "ole": 4321,
      "osa": 4322,
      "zły": 4323,
      "zgodzi": 4324,
      "strów": 4325,
      "stwem": 4326,
      "pożar": 4327,
      "szó": 4328,
      "liczne": 4329,
      "zapro": 4330,
      "zarządza": 4331,
      "zaufa": 4332,
      "mija": 4333,
      "mama": 4334,
      "przera": 4335,
      "pas": 4336,
      "wierz": 4337,
      "delega": 4338,
      "szefa": 4339,
      "cone": 4340,
      "podsta": 4341,
      "jutro": 4342,
      "konferen": 4343,
      "trzeci": 4344,
      "rwał": 4345,
      "Pary": 4346,
      "Paweł": 4347,
      "Chciał": 4348,
      "Maria": 4349,
      "rozpozna": 4350,
      "kościoła": 4351,
      "pozycji": 4352,
      "dotyczy": 4353,
      "spółki": 4354,
      "Ryszar": 4355,
      "prawidł": 4356,
      "drzwia": 4357,
      "krajów": 4358,
      "wspomnie": 4359,
      "Kościół": 4360,
      "czwartek": 4361,
      "CH": 4362,
      "cmenta": 4363,
      "imię": 4364,
      "kowania": 4365,
      "owskiej": 4366,
      "cznymi": 4367,
      "pokole": 4368,
      "poglą": 4369,
      "lista": 4370,
      "leży": 4371,
      "odczu": 4372,
      "moją": 4373,
      "inte": 4374,
      "lono": 4375,
      "sposob": 4376,
      "spokój": 4377,
      "sumie": 4378,
      "Zachod": 4379,
      "samolo": 4380,
      "pływa": 4381,
      "Takie": 4382,
      "znajdzie": 4383,
      "prezesa": 4384,
      "mocno": 4385,
      "zmem": 4386,
      "portu": 4387,
      "parafi": 4388,
      "rzecznik": 4389,
      "zapewne": 4390,
      "ambasa": 4391,
      "zobaczyć": 4392,
      "nowoczes": 4393,
      "wykorzysty": 4394,
      "kogoś": 4395,
      "NATO": 4396,
      "Gaze": 4397,
      "jrzał": 4398,
      "Stanisław": 4399,
      "wieczorem": 4400,
      "czterech": 4401,
      "Henry": 4402,
      "Ca": 4403,
      "Dar": 4404,
      "Ksią": 4405,
      "Mał": 4406,
      "Rob": 4407,
      "ksy": 4408,
      "kował": 4409,
      "nkę": 4410,
      "th": 4411,
      "zba": 4412,
      "znik": 4413,
      "napis": 4414,
      "owska": 4415,
      "poczy": 4416,
      "posia": 4417,
      "jezio": 4418,
      "rzeniem": 4419,
      "zamiesz": 4420,
      "red": 4421,
      "łaś": 4422,
      "wiedzieć": 4423,
      "rur": 4424,
      "....": 4425,
      "pień": 4426,
      "żyje": 4427,
      "podwyż": 4428,
      "władz": 4429,
      "Polskiego": 4430,
      "Chło": 4431,
      "twarza": 4432,
      "szość": 4433,
      "podatku": 4434,
      "chroni": 4435,
      "obrony": 4436,
      "kazać": 4437,
      "mieszkańcy": 4438,
      "samochodów": 4439,
      "wyborów": 4440,
      "prywaty": 4441,
      "Szczeci": 4442,
      "komputer": 4443,
      "całkowicie": 4444,
      "WA": 4445,
      "dowi": 4446,
      "dniem": 4447,
      "eś": 4448,
      "tował": 4449,
      "twem": 4450,
      "utrzy": 4451,
      "wza": 4452,
      "wdzię": 4453,
      "wręcz": 4454,
      "nasi": 4455,
      "nica": 4456,
      "katego": 4457,
      "wymia": 4458,
      "obję": 4459,
      "przyci": 4460,
      "czania": 4461,
      "boj": 4462,
      "chodzie": 4463,
      "stycznych": 4464,
      "wszystkiego": 4465,
      "czasów": 4466,
      "Państw": 4467,
      "face": 4468,
      "cyjnie": 4469,
      "wodę": 4470,
      "chodziło": 4471,
      "chętnie": 4472,
      "wielką": 4473,
      "publicznych": 4474,
      "obowiązu": 4475,
      "potrzeby": 4476,
      "warunków": 4477,
      "wrócił": 4478,
      "Janusz": 4479,
      "zwierząt": 4480,
      "jechali": 4481,
      "południ": 4482,
      "anali": 4483,
      "niezbę": 4484,
      "obywatel": 4485,
      "Będzie": 4486,
      "kwietnia": 4487,
      "drewnia": 4488,
      "mechani": 4489,
      "indywidual": 4490,
      "Nor": 4491,
      "PK": 4492,
      "Pla": 4493,
      "dności": 4494,
      "nawi": 4495,
      "nasza": 4496,
      "stry": 4497,
      "szły": 4498,
      "lit": 4499,
      "linii": 4500,
      "wyposa": 4501,
      "odbi": 4502,
      "odręb": 4503,
      "stacji": 4504,
      "obsza": 4505,
      "dera": 4506,
      "piel": 4507,
      "pewien": 4508,
      "bami": 4509,
      "biegu": 4510,
      "sena": 4511,
      "konstytu": 4512,
      "możesz": 4513,
      "tamtej": 4514,
      "soli": 4515,
      "Pamię": 4516,
      "196": 4517,
      "nikami": 4518,
      "pewnością": 4519,
      "rodzice": 4520,
      "umieję": 4521,
      "odpowiedź": 4522,
      "godzinę": 4523,
      "Było": 4524,
      "głosów": 4525,
      "żadnej": 4526,
      "użytk": 4527,
      "telewizy": 4528,
      "Andrzeja": 4529,
      "miesiąc": 4530,
      "określonych": 4531,
      "młodzieży": 4532,
      "Józef": 4533,
      "Myślę": 4534,
      "Wałę": 4535,
      "okoliczności": 4536,
      "CE": 4537,
      "Gór": 4538,
      "Mę": 4539,
      "Stu": 4540,
      "bów": 4541,
      "edu": 4542,
      "gl": 4543,
      "lał": 4544,
      "pt": 4545,
      "rka": 4546,
      "snąć": 4547,
      "tko": 4548,
      "pokój": 4549,
      "rzeź": 4550,
      "tań": 4551,
      "wyrzu": 4552,
      "wystą": 4553,
      "waniu": 4554,
      "respon": 4555,
      "wiła": 4556,
      "przewo": 4557,
      "odbywa": 4558,
      "argu": 4559,
      "tual": 4560,
      "znam": 4561,
      "spotyka": 4562,
      "ręki": 4563,
      "Zawsze": 4564,
      "straj": 4565,
      "tycznym": 4566,
      "robią": 4567,
      "samodzie": 4568,
      "marszał": 4569,
      "dodaje": 4570,
      "odebra": 4571,
      "Demo": 4572,
      "wyborach": 4573,
      "opieku": 4574,
      "szukać": 4575,
      "mężczyzn": 4576,
      "usług": 4577,
      "Kultury": 4578,
      "kapitał": 4579,
      "Pierwszy": 4580,
      "pasaże": 4581,
      "Gospodar": 4582,
      "Por": 4583,
      "Ur": 4584,
      "agen": 4585,
      "klo": 4586,
      "towania": 4587,
      "utra": 4588,
      "układ": 4589,
      "ńcy": 4590,
      "nieba": 4591,
      "nice": 4592,
      "pochodzą": 4593,
      "pomóc": 4594,
      "kary": 4595,
      "zastrze": 4596,
      "dotąd": 4597,
      "wydo": 4598,
      "wami": 4599,
      "real": 4600,
      "widzenia": 4601,
      "owani": 4602,
      "lau": 4603,
      "stal": 4604,
      "stali": 4605,
      "dyspo": 4606,
      "lutego": 4607,
      "gabi": 4608,
      "syw": 4609,
      "sur": 4610,
      "sezo": 4611,
      "przedstawia": 4612,
      "dzają": 4613,
      "Mille": 4614,
      "zostali": 4615,
      "wielkich": 4616,
      "kilkanaście": 4617,
      "ludziom": 4618,
      "kowane": 4619,
      "pamięci": 4620,
      "perspe": 4621,
      "ostatnim": 4622,
      "Polacy": 4623,
      "wyjaśnia": 4624,
      "sztuki": 4625,
      "stopniu": 4626,
      "Więk": 4627,
      "zatrudni": 4628,
      "rozmawiać": 4629,
      "remont": 4630,
      "wybuch": 4631,
      "Tadeusz": 4632,
      "bliote": 4633,
      "łatwiej": 4634,
      "Ed": 4635,
      "Gro": 4636,
      "Part": 4637,
      "Towarzy": 4638,
      "Zdaniem": 4639,
      "atrak": 4640,
      "błą": 4641,
      "sar": 4642,
      "tność": 4643,
      "wsty": 4644,
      "niektóre": 4645,
      "legł": 4646,
      "wynagro": 4647,
      "rewolu": 4648,
      "inten": 4649,
      "bizne": 4650,
      "skierowa": 4651,
      "podpisa": 4652,
      "suge": 4653,
      "stycznej": 4654,
      "wschod": 4655,
      "groź": 4656,
      "tekst": 4657,
      "szony": 4658,
      "wielkim": 4659,
      "kościół": 4660,
      "Nigdy": 4661,
      "1998": 4662,
      "manda": 4663,
      "czekać": 4664,
      "dwudzie": 4665,
      "następnie": 4666,
      "Wszystkie": 4667,
      "poziom": 4668,
      "jakimś": 4669,
      "społeczeństwa": 4670,
      "gwaran": 4671,
      "pobliżu": 4672,
      "Kan": 4673,
      "Sła": 4674,
      "Wę": 4675,
      "dle": 4676,
      "kowego": 4677,
      "nnych": 4678,
      "ocho": 4679,
      "swą": 4680,
      "wto": 4681,
      "napisa": 4682,
      "niebezpie": 4683,
      "niła": 4684,
      "sięga": 4685,
      "wano": 4686,
      "reze": 4687,
      "panią": 4688,
      "kuchni": 4689,
      "piosen": 4690,
      "innej": 4691,
      "pienie": 4692,
      "bieżą": 4693,
      "powiedz": 4694,
      "bezpośredni": 4695,
      "cząc": 4696,
      "braku": 4697,
      "Tomasz": 4698,
      "Jacek": 4699,
      "Chi": 4700,
      "stanowie": 4701,
      "polska": 4702,
      "dawał": 4703,
      "otwiera": 4704,
      "Pio": 4705,
      "zaledwie": 4706,
      "ziono": 4707,
      "składa": 4708,
      "tygodnie": 4709,
      "mld": 4710,
      "Ministrów": 4711,
      "Właśnie": 4712,
      "krótko": 4713,
      "miesiące": 4714,
      "charaktery": 4715,
      "administracji": 4716,
      "pospolitej": 4717,
      "36": 4718,
      "500": 4719,
      "Nale": 4720,
      "ON": 4721,
      "Robe": 4722,
      "Rzą": 4723,
      "ZS": 4724,
      "nował": 4725,
      "opowia": 4726,
      "usły": 4727,
      "wst": 4728,
      "zny": 4729,
      "zbi": 4730,
      "Środ": 4731,
      "żę": 4732,
      "żół": 4733,
      "zadania": 4734,
      "netu": 4735,
      "dora": 4736,
      "przeszka": 4737,
      "odby": 4738,
      "odwo": 4739,
      "czyt": 4740,
      "statu": 4741,
      "mono": 4742,
      "cześniej": 4743,
      "obszar": 4744,
      "przyjął": 4745,
      "szymi": 4746,
      "szeni": 4747,
      "bił": 4748,
      "czasami": 4749,
      "głowie": 4750,
      "termin": 4751,
      "słuch": 4752,
      "Państwa": 4753,
      "studen": 4754,
      "komple": 4755,
      "zostaje": 4756,
      "Marcin": 4757,
      "wielkiej": 4758,
      "stosuje": 4759,
      "twierdzą": 4760,
      "szczęścia": 4761,
      "zasadzie": 4762,
      "politycznych": 4763,
      "wrócić": 4764,
      "Francji": 4765,
      "włosy": 4766,
      "Wojciech": 4767,
      "profesor": 4768,
      "reprezenta": 4769,
      "Zbigniew": 4770,
      "Kilka": 4771,
      "31": 4772,
      "Akade": 4773,
      "RZ": 4774,
      "jna": 4775,
      "kwali": 4776,
      "ncie": 4777,
      "umy": 4778,
      "owca": 4779,
      "listów": 4780,
      "konuje": 4781,
      "zasko": 4782,
      "zachę": 4783,
      "zapowiada": 4784,
      "widział": 4785,
      "matki": 4786,
      "musie": 4787,
      "sić": 4788,
      "biur": 4789,
      "trzeź": 4790,
      "formie": 4791,
      "siadł": 4792,
      "pytać": 4793,
      "wielka": 4794,
      "publicznej": 4795,
      "dokumentów": 4796,
      "Choć": 4797,
      "urzędu": 4798,
      "elektry": 4799,
      "energii": 4800,
      "poczucie": 4801,
      "instytucji": 4802,
      "sługuje": 4803,
      "ległości": 4804,
      "Prezes": 4805,
      "ubiegłym": 4806,
      "PSL": 4807,
      "St": 4808,
      "WI": 4809,
      "bła": 4810,
      "epi": 4811,
      "gmin": 4812,
      "pta": 4813,
      "uj": 4814,
      "upły": 4815,
      "ńców": 4816,
      "ślą": 4817,
      "strza": 4818,
      "szczo": 4819,
      "linie": 4820,
      "lizmu": 4821,
      "kamie": 4822,
      "zarząd": 4823,
      "zaangaż": 4824,
      "letniego": 4825,
      "torem": 4826,
      "wina": 4827,
      "mana": 4828,
      "przepisa": 4829,
      "laty": 4830,
      "odej": 4831,
      "mierza": 4832,
      "proś": 4833,
      "bić": 4834,
      "baj": 4835,
      "dum": 4836,
      "sel": 4837,
      "Nad": 4838,
      "stoli": 4839,
      "trzecie": 4840,
      "Komen": 4841,
      "Mamy": 4842,
      "słusz": 4843,
      "pewnym": 4844,
      "drugą": 4845,
      "serde": 4846,
      "współpracy": 4847,
      "zwolnie": 4848,
      "Czer": 4849,
      "wentual": 4850,
      "dokumenta": 4851,
      "Właści": 4852,
      "miłość": 4853,
      "Organi": 4854,
      "tytułu": 4855,
      "XVIII": 4856,
      "odpowiednio": 4857,
      "poinformował": 4858,
      "wziąć": 4859,
      "rezyg": 4860,
      "myśleć": 4861,
      "dziewięć": 4862,
      "Robert": 4863,
      "Skar": 4864,
      "ata": 4865,
      "awa": 4866,
      "cm": 4867,
      "dowania": 4868,
      "gię": 4869,
      "nny": 4870,
      "nowym": 4871,
      "wprowadza": 4872,
      "wprost": 4873,
      "wkrótce": 4874,
      "zobowiąza": 4875,
      "owuje": 4876,
      "nikogo": 4877,
      "licza": 4878,
      "leś": 4879,
      "tydzień": 4880,
      "waka": 4881,
      "przekro": 4882,
      "odpar": 4883,
      "czech": 4884,
      "wości": 4885,
      "delika": 4886,
      "tuż": 4887,
      "pielę": 4888,
      "podróż": 4889,
      "równowa": 4890,
      "ręka": 4891,
      "czości": 4892,
      "Kolej": 4893,
      "geo": 4894,
      "Miał": 4895,
      "karie": 4896,
      "partyj": 4897,
      "określi": 4898,
      "pierwsza": 4899,
      "pierwszą": 4900,
      "wielkiego": 4901,
      "wojnie": 4902,
      "nauki": 4903,
      "Ludzie": 4904,
      "rachun": 4905,
      "udziału": 4906,
      "wiadomości": 4907,
      "stwierdził": 4908,
      "brytyj": 4909,
      "kłó": 4910,
      "ogni": 4911,
      "brzegu": 4912,
      "Dobrze": 4913,
      "podkreśla": 4914,
      "komenda": 4915,
      "Im": 4916,
      "LI": 4917,
      "PN": 4918,
      "Szu": 4919,
      "Uniwersy": 4920,
      "cko": 4921,
      "ff": 4922,
      "nnej": 4923,
      "pka": 4924,
      "rty": 4925,
      "sprzed": 4926,
      "snął": 4927,
      "wchodzi": 4928,
      "ńce": 4929,
      "żby": 4930,
      "pola": 4931,
      "szałek": 4932,
      "les": 4933,
      "legi": 4934,
      "kimi": 4935,
      "magi": 4936,
      "nogi": 4937,
      "cele": 4938,
      "pragnie": 4939,
      "gaz": 4940,
      "czasach": 4941,
      "codaw": 4942,
      "bach": 4943,
      "rozwój": 4944,
      "prawdzie": 4945,
      "głem": 4946,
      "tempera": 4947,
      "skorzy": 4948,
      "strate": 4949,
      "żonego": 4950,
      "byłam": 4951,
      "Być": 4952,
      "kolejnych": 4953,
      "człowiekiem": 4954,
      "własnych": 4955,
      "korzyst": 4956,
      "ksiądz": 4957,
      "światowej": 4958,
      "zmianie": 4959,
      "skarb": 4960,
      "szpitalu": 4961,
      "języka": 4962,
      "materia": 4963,
      "metr": 4964,
      "śledz": 4965,
      "problemu": 4966,
      "związanych": 4967,
      "wykorzysta": 4968,
      "wspom": 4969,
      "Społe": 4970,
      "zaczęła": 4971,
      "Albo": 4972,
      "kwestia": 4973,
      "kontynu": 4974,
      "Obecnie": 4975,
      "terrory": 4976,
      "\"?": 4977,
      "cką": 4978,
      "grywa": 4979,
      "ił": 4980,
      "ilu": 4981,
      "kru": 4982,
      "ktem": 4983,
      "nować": 4984,
      "oglą": 4985,
      "oczywi": 4986,
      "twar": 4987,
      "znie": 4988,
      "Łuka": 4989,
      "żne": 4990,
      "radi": 4991,
      "rzekł": 4992,
      "koryta": 4993,
      "zapropo": 4994,
      "domaga": 4995,
      "wychodzi": 4996,
      "resor": 4997,
      "matu": 4998,
      "dzieliśmy": 4999,
      "czeni": 5000,
      "wodzie": 5001,
      "mych": 5002,
      "inwest": 5003,
      "inteli": 5004,
      "lum": 5005,
      "pens": 5006,
      "promi": 5007,
      "zezna": 5008,
      "zywał": 5009,
      "bada": 5010,
      "senato": 5011,
      "skał": 5012,
      "skaza": 5013,
      "stolicy": 5014,
      "zując": 5015,
      "mówiła": 5016,
      "mentem": 5017,
      "wzbu": 5018,
      "krew": 5019,
      "Tego": 5020,
      "musimy": 5021,
      "dowała": 5022,
      "zmienić": 5023,
      "sprawiedli": 5024,
      "serca": 5025,
      "czynności": 5026,
      "kosztów": 5027,
      "podejrza": 5028,
      "przyjęcie": 5029,
      "kontrol": 5030,
      "samochodu": 5031,
      "dotyczących": 5032,
      "rower": 5033,
      "Parla": 5034,
      "Solidarności": 5035,
      "Miasta": 5036,
      "wzajem": 5037,
      "45": 5038,
      "Amery": 5039,
      "Dro": 5040,
      "IV": 5041,
      "Lon": 5042,
      "Pó": 5043,
      "RR": 5044,
      "fie": 5045,
      "ir": 5046,
      "oprócz": 5047,
      "żki": 5048,
      "cznik": 5049,
      "szkla": 5050,
      "zadań": 5051,
      "domów": 5052,
      "dotk": 5053,
      "wale": 5054,
      "resta": 5055,
      "bytu": 5056,
      "przeży": 5057,
      "przekra": 5058,
      "odbędzie": 5059,
      "cymi": 5060,
      "siu": 5061,
      "szeniu": 5062,
      "nąłem": 5063,
      "bara": 5064,
      "spod": 5065,
      "sesji": 5066,
      "bek": 5067,
      "skra": 5068,
      "powieści": 5069,
      "ałym": 5070,
      "ściem": 5071,
      "krajach": 5072,
      "tyczna": 5073,
      "działań": 5074,
      "czuje": 5075,
      "stąd": 5076,
      "ściany": 5077,
      "wysokie": 5078,
      "dziękuję": 5079,
      "grafii": 5080,
      "otrzymał": 5081,
      "stopni": 5082,
      "ostry": 5083,
      "Genera": 5084,
      "wszelkie": 5085,
      "Centra": 5086,
      "poszukiwa": 5087,
      "Człowie": 5088,
      "jakiegoś": 5089,
      "JE": 5090,
      "Spe": 5091,
      "Zo": 5092,
      "jo": 5093,
      "mowania": 5094,
      "małe": 5095,
      "opu": 5096,
      "ogląda": 5097,
      "nara": 5098,
      "naszą": 5099,
      "lizm": 5100,
      "libera": 5101,
      "leżą": 5102,
      "wycię": 5103,
      "żegna": 5104,
      "owań": 5105,
      "rysu": 5106,
      "przykła": 5107,
      "zesz": 5108,
      "czasy": 5109,
      "banku": 5110,
      "łuje": 5111,
      "butel": 5112,
      "rząc": 5113,
      "kontak": 5114,
      "koncep": 5115,
      "trzydzieści": 5116,
      "wóz": 5117,
      "terminie": 5118,
      "dium": 5119,
      "czymś": 5120,
      "szczegół": 5121,
      "Najpierw": 5122,
      "1997": 5123,
      "stępujemy": 5124,
      "krzyw": 5125,
      "pokoj": 5126,
      "kultura": 5127,
      "Sejmie": 5128,
      "funkcjonariu": 5129,
      "sędzi": 5130,
      "problemów": 5131,
      "potrzebne": 5132,
      "poziomie": 5133,
      "nazwisko": 5134,
      "dziedzinie": 5135,
      "tysiące": 5136,
      "rzeczywistości": 5137,
      "Ziemi": 5138,
      "Żeby": 5139,
      "wstrzymał": 5140,
      "zastanawia": 5141,
      "Ali": 5142,
      "Aby": 5143,
      "Cię": 5144,
      "Stwier": 5145,
      "Stowarzy": 5146,
      "UE": 5147,
      "Uważa": 5148,
      "et": 5149,
      "ewentual": 5150,
      "kwar": 5151,
      "ll": 5152,
      "pem": 5153,
      "ńscy": 5154,
      "owcy": 5155,
      "niczych": 5156,
      "chor": 5157,
      "chan": 5158,
      "radziec": 5159,
      "gorzej": 5160,
      "koro": 5161,
      "leń": 5162,
      "dosy": 5163,
      "występ": 5164,
      "ładnie": 5165,
      "przegra": 5166,
      "powtó": 5167,
      "weź": 5168,
      "meczu": 5169,
      "skło": 5170,
      "styczny": 5171,
      "żaden": 5172,
      "000": 5173,
      "straż": 5174,
      "lubię": 5175,
      "Cha": 5176,
      "północ": 5177,
      "Miło": 5178,
      "wodą": 5179,
      "szędzie": 5180,
      "kazało": 5181,
      "Lep": 5182,
      "rodzina": 5183,
      "piersi": 5184,
      "erni": 5185,
      "właściwy": 5186,
      "własnym": 5187,
      "trafił": 5188,
      "uważam": 5189,
      "szansę": 5190,
      "chciałbym": 5191,
      "zginę": 5192,
      "tysiąc": 5193,
      "obserwa": 5194,
      "budowla": 5195,
      "Marszałku": 5196,
      "75": 5197,
      "Bel": 5198,
      "DZ": 5199,
      "LE": 5200,
      "Wcześniej": 5201,
      "Zd": 5202,
      "dowanie": 5203,
      "es": 5204,
      "eki": 5205,
      "zbo": 5206,
      "narze": 5207,
      "nacze": 5208,
      "nasto": 5209,
      "niezwykle": 5210,
      "kan": 5211,
      "letnia": 5212,
      "nega": 5213,
      "wysła": 5214,
      "wyszedł": 5215,
      "wyklu": 5216,
      "wana": 5217,
      "rezu": 5218,
      "manie": 5219,
      "mary": 5220,
      "przesu": 5221,
      "dziło": 5222,
      "czyły": 5223,
      "przyszedł": 5224,
      "inna": 5225,
      "inspe": 5226,
      "zewnętrz": 5227,
      "mego": 5228,
      "figu": 5229,
      "skry": 5230,
      "póki": 5231,
      "dzono": 5232,
      "bezwzglę": 5233,
      "cząć": 5234,
      "rodę": 5235,
      "ger": 5236,
      "kolegów": 5237,
      "robił": 5238,
      "niono": 5239,
      "mieszkaniu": 5240,
      "jednost": 5241,
      "Anto": 5242,
      "urlo": 5243,
      "społecznych": 5244,
      "specjalnie": 5245,
      "landii": 5246,
      "stawienie": 5247,
      "wspólnego": 5248,
      "policjantów": 5249,
      "lekarz": 5250,
      "język": 5251,
      "interpre": 5252,
      "miejscowości": 5253,
      "udziela": 5254,
      "zdecydowanie": 5255,
      "zrozumieć": 5256,
      "doskona": 5257,
      "słyszałem": 5258,
      "absolu": 5259,
      "herba": 5260,
      "poszczególnych": 5261,
      "Większość": 5262,
      "Czu": 5263,
      "For": 5264,
      "Gu": 5265,
      "Kur": 5266,
      "PS": 5267,
      "ano": 5268,
      "bór": 5269,
      "fro": 5270,
      "lnymi": 5271,
      "towe": 5272,
      "napisał": 5273,
      "niezna": 5274,
      "niedawno": 5275,
      "polu": 5276,
      "postu": 5277,
      "kawał": 5278,
      "zaprze": 5279,
      "lecia": 5280,
      "tabli": 5281,
      "wysił": 5282,
      "wyniki": 5283,
      "rela": 5284,
      "bycia": 5285,
      "odno": 5286,
      "odpowia": 5287,
      "dziu": 5288,
      "patro": 5289,
      "jąco": 5290,
      "dyj": 5291,
      "powtarza": 5292,
      "piw": 5293,
      "biał": 5294,
      "cona": 5295,
      "rozstrzy": 5296,
      "wiać": 5297,
      "negocja": 5298,
      "rót": 5299,
      "gia": 5300,
      "sków": 5301,
      "stycznego": 5302,
      "granicy": 5303,
      "fer": 5304,
      "Kali": 5305,
      "Katowi": 5306,
      "chodź": 5307,
      "zdarza": 5308,
      "odpowiednie": 5309,
      "własną": 5310,
      "1999": 5311,
      "względem": 5312,
      "kontra": 5313,
      "filmu": 5314,
      "wyraża": 5315,
      "Dzien": 5316,
      "wyjaśnie": 5317,
      "słuchaj": 5318,
      "jechała": 5319,
      "internet": 5320,
      "Niemczech": 5321,
      "bezpieczeństwo": 5322,
      "południu": 5323,
      "porusza": 5324,
      "reag": 5325,
      "inął": 5326,
      "znajdują": 5327,
      "likwida": 5328,
      "katastro": 5329,
      "oczach": 5330,
      "Zyg": 5331,
      "Demokra": 5332,
      "perspekty": 5333,
      "48": 5334,
      "MS": 5335,
      "Ogó": 5336,
      "Rzy": 5337,
      "Wz": 5338,
      "ctwo": 5339,
      "ią": 5340,
      "iść": 5341,
      "lwe": 5342,
      "ostrze": 5343,
      "pki": 5344,
      "żnej": 5345,
      "napię": 5346,
      "owskim": 5347,
      "czką": 5348,
      "nili": 5349,
      "gotów": 5350,
      "dołą": 5351,
      "tyk": 5352,
      "wyróż": 5353,
      "przeja": 5354,
      "przeprowadza": 5355,
      "oddział": 5356,
      "pać": 5357,
      "aru": 5358,
      "ludź": 5359,
      "żynie": 5360,
      "czać": 5361,
      "Ponieważ": 5362,
      "mej": 5363,
      "aler": 5364,
      "Jeden": 5365,
      "Jerzego": 5366,
      "konserwa": 5367,
      "okno": 5368,
      "Paw": 5369,
      "skutek": 5370,
      "wspiera": 5371,
      "pracować": 5372,
      "parku": 5373,
      "większe": 5374,
      "sprawą": 5375,
      "każda": 5376,
      "rozporządzenia": 5377,
      "członkowie": 5378,
      "dokumenty": 5379,
      "samych": 5380,
      "psychi": 5381,
      "nagrody": 5382,
      "protest": 5383,
      "pytała": 5384,
      "Często": 5385,
      "techno": 5386,
      "skompli": 5387,
      "Agnie": 5388,
      "Bry": 5389,
      "DO": 5390,
      "Ewa": 5391,
      "Powi": 5392,
      "San": 5393,
      "Usta": 5394,
      "Zło": 5395,
      "brzu": 5396,
      "ekra": 5397,
      "mle": 5398,
      "odz": 5399,
      "tw": 5400,
      "umiesz": 5401,
      "zwal": 5402,
      "ąb": 5403,
      "rzo": 5404,
      "rzony": 5405,
      "ratow": 5406,
      "mił": 5407,
      "mara": 5408,
      "dziły": 5409,
      "pary": 5410,
      "deba": 5411,
      "tują": 5412,
      "pio": 5413,
      "osła": 5414,
      "sąsie": 5415,
      "ręką": 5416,
      "miaste": 5417,
      "okna": 5418,
      "świade": 5419,
      "soby": 5420,
      "strasznie": 5421,
      "studia": 5422,
      "pełnić": 5423,
      "zdro": 5424,
      "droga": 5425,
      "mieszkanie": 5426,
      "Staro": 5427,
      "Przystępujemy": 5428,
      "funkcji": 5429,
      "późno": 5430,
      "liczby": 5431,
      "trudności": 5432,
      "zajmuje": 5433,
      "Muzeum": 5434,
      "Rzeczy": 5435,
      "wyboru": 5436,
      "zespołu": 5437,
      "całości": 5438,
      "granicą": 5439,
      "adres": 5440,
      "pręd": 5441,
      "wtorek": 5442,
      "ludźmi": 5443,
      "Ad": 5444,
      "blu": 5445,
      "ds": 5446,
      "opuści": 5447,
      "wstęp": 5448,
      "zgroma": 5449,
      "łki": 5450,
      "ratu": 5451,
      "pociąg": 5452,
      "dzał": 5453,
      "liczy": 5454,
      "kać": 5455,
      "zanim": 5456,
      "zarządu": 5457,
      "mistrza": 5458,
      "wyna": 5459,
      "tości": 5460,
      "widziałem": 5461,
      "przeprowadzo": 5462,
      "kun": 5463,
      "mieści": 5464,
      "sal": 5465,
      "lonych": 5466,
      "sporo": 5467,
      "wiają": 5468,
      "niejsza": 5469,
      "skach": 5470,
      "jęcie": 5471,
      "styna": 5472,
      "trzymał": 5473,
      "skończy": 5474,
      "płacić": 5475,
      "rzucił": 5476,
      "towanych": 5477,
      "druga": 5478,
      "piętna": 5479,
      "godzinie": 5480,
      "zachowania": 5481,
      "Pracy": 5482,
      "sprawiedliwości": 5483,
      "zgody": 5484,
      "szybciej": 5485,
      "mógłby": 5486,
      "dzielić": 5487,
      "dziewczyna": 5488,
      "poznać": 5489,
      "księdza": 5490,
      "Francu": 5491,
      "miarę": 5492,
      "przyszłym": 5493,
      "dziennikarzy": 5494,
      "obowiązków": 5495,
      "energe": 5496,
      "obywateli": 5497,
      "olbrzy": 5498,
      "oficjalnie": 5499,
      "zagranicznych": 5500,
      "wycofa": 5501,
      "głośno": 5502,
      "wieczór": 5503,
      "Trybuna": 5504,
      "dosyć": 5505,
      "-)": 5506,
      "następu": 5507,
      "niby": 5508,
      "komenta": 5509,
      "karze": 5510,
      "zabój": 5511,
      "zapytał": 5512,
      "dostał": 5513,
      "przecię": 5514,
      "odbiera": 5515,
      "pania": 5516,
      "ryb": 5517,
      "stają": 5518,
      "moment": 5519,
      "wieś": 5520,
      "dyrek": 5521,
      "żydow": 5522,
      "skiemu": 5523,
      "owicz": 5524,
      "trage": 5525,
      "chach": 5526,
      "Komu": 5527,
      "mówili": 5528,
      "górę": 5529,
      "głosy": 5530,
      "dzać": 5531,
      "panów": 5532,
      "kazała": 5533,
      "okresu": 5534,
      "Lech": 5535,
      "pisma": 5536,
      "toria": 5537,
      "Taki": 5538,
      "wojska": 5539,
      "prowadziła": 5540,
      "kowany": 5541,
      "2006": 5542,
      "procedu": 5543,
      "zasad": 5544,
      "chcemy": 5545,
      "życiem": 5546,
      "powoli": 5547,
      "wychowa": 5548,
      "pełnienia": 5549,
      "Soju": 5550,
      "ramiona": 5551,
      "dowanych": 5552,
      "lekarza": 5553,
      "wybory": 5554,
      "treści": 5555,
      "fikacji": 5556,
      "inwestycji": 5557,
      "regiona": 5558,
      "Pierwsze": 5559,
      "świadomość": 5560,
      "zarabia": 5561,
      "filozofi": 5562,
      "rezulta": 5563,
      "Zygmu": 5564,
      "Rzeczypospolitej": 5565,
      "BA": 5566,
      "Bro": 5567,
      "KI": 5568,
      "aktual": 5569,
      "car": 5570,
      "cóż": 5571,
      "mru": 5572,
      "mem": 5573,
      "oł": 5574,
      "qu": 5575,
      "sre": 5576,
      "towy": 5577,
      "towych": 5578,
      "tnik": 5579,
      "ver": 5580,
      "nada": 5581,
      "rzał": 5582,
      "rada": 5583,
      "potra": 5584,
      "lia": 5585,
      "necie": 5586,
      "dotar": 5587,
      "wyczaj": 5588,
      "łazie": 5589,
      "rzyła": 5590,
      "przerwa": 5591,
      "odde": 5592,
      "celem": 5593,
      "moty": 5594,
      "cyfi": 5595,
      "rują": 5596,
      "szewski": 5597,
      "prosił": 5598,
      "żyły": 5599,
      "znak": 5600,
      "znakomi": 5601,
      "lory": 5602,
      "sklep": 5603,
      "powiedzia": 5604,
      "Jedy": 5605,
      "stępow": 5606,
      "działanie": 5607,
      "Rozu": 5608,
      "Lecz": 5609,
      "podobne": 5610,
      "społecznej": 5611,
      "serce": 5612,
      "komisja": 5613,
      "chemi": 5614,
      "sensu": 5615,
      "prokuratury": 5616,
      "poważnie": 5617,
      "proponuje": 5618,
      "przedsiębiorstwa": 5619,
      "widok": 5620,
      "alkohol": 5621,
      "wyjątkowo": 5622,
      "Prezydent": 5623,
      "Solidarność": 5624,
      "przeszłości": 5625,
      "sjona": 5626,
      "pozostałych": 5627,
      "restaura": 5628,
      "Ani": 5629,
      "Dwa": 5630,
      "Dłu": 5631,
      "Gi": 5632,
      "Kor": 5633,
      "MI": 5634,
      "Nowym": 5635,
      "Osob": 5636,
      "ap": 5637,
      "kta": 5638,
      "rowie": 5639,
      "sche": 5640,
      "trój": 5641,
      "urucho": 5642,
      "wczy": 5643,
      "owników": 5644,
      "radio": 5645,
      "ponu": 5646,
      "rola": 5647,
      "zakaz": 5648,
      "zamyka": 5649,
      "dol": 5650,
      "tanie": 5651,
      "reak": 5652,
      "wino": 5653,
      "pasz": 5654,
      "mogłem": 5655,
      "ścian": 5656,
      "obcią": 5657,
      "rusz": 5658,
      "lonym": 5659,
      "rowany": 5660,
      "czoną": 5661,
      "dzonych": 5662,
      "głowa": 5663,
      "dobro": 5664,
      "policję": 5665,
      "gent": 5666,
      "ustaw": 5667,
      "ktury": 5668,
      "Roman": 5669,
      "Wiele": 5670,
      "scena": 5671,
      "pozwo": 5672,
      "obowiązek": 5673,
      "magazy": 5674,
      "przedstawiciele": 5675,
      "politycznej": 5676,
      "mąż": 5677,
      "księży": 5678,
      "prokurator": 5679,
      "robię": 5680,
      "patrzył": 5681,
      "układu": 5682,
      "pamiętać": 5683,
      "rozwija": 5684,
      "Ojciec": 5685,
      "jakiejś": 5686,
      "rzadko": 5687,
      "Aleksander": 5688,
      "Głos": 5689,
      "Mężczy": 5690,
      "musieli": 5691,
      "Londy": 5692,
      "Bru": 5693,
      "UW": 5694,
      "Zu": 5695,
      "dnych": 5696,
      "dróg": 5697,
      "gły": 5698,
      "ium": 5699,
      "kowym": 5700,
      "lnia": 5701,
      "ory": 5702,
      "prą": 5703,
      "snu": 5704,
      "twój": 5705,
      "unik": 5706,
      "uzależ": 5707,
      "ychy": 5708,
      "ownie": 5709,
      "nij": 5710,
      "pochodzi": 5711,
      "pogrze": 5712,
      "liła": 5713,
      "listę": 5714,
      "zadzwo": 5715,
      "zakup": 5716,
      "lekar": 5717,
      "doktor": 5718,
      "mir": 5719,
      "wagę": 5720,
      "reży": 5721,
      "mami": 5722,
      "malu": 5723,
      "mając": 5724,
      "matycznie": 5725,
      "przebywa": 5726,
      "cena": 5727,
      "wolność": 5728,
      "cieszy": 5729,
      "pracodaw": 5730,
      "przychodzi": 5731,
      "cjo": 5732,
      "proto": 5733,
      "czanie": 5734,
      "metry": 5735,
      "sypi": 5736,
      "chodzenia": 5737,
      "puł": 5738,
      "powietrze": 5739,
      "Pawła": 5740,
      "swob": 5741,
      "Karol": 5742,
      "żono": 5743,
      "żoną": 5744,
      "riusz": 5745,
      "miejscach": 5746,
      "pracował": 5747,
      "strzela": 5748,
      "powiatu": 5749,
      "chciałem": 5750,
      "2001": 5751,
      "zasadni": 5752,
      "samą": 5753,
      "wysoko": 5754,
      "sytuację": 5755,
      "wraż": 5756,
      "zwolen": 5757,
      "używa": 5758,
      "atr": 5759,
      "wspólnie": 5760,
      "niesienia": 5761,
      "odpowiedzialności": 5762,
      "zdrawiam": 5763,
      "roślin": 5764,
      "doskonale": 5765,
      "nieruchomości": 5766,
      "materiałów": 5767,
      "negatyw": 5768,
      ".\"": 5769,
      "Oto": 5770,
      "Zgodnie": 5771,
      "dały": 5772,
      "jał": 5773,
      "znę": 5774,
      "narzę": 5775,
      "następuje": 5776,
      "czce": 5777,
      "niała": 5778,
      "nikom": 5779,
      "poten": 5780,
      "pokona": 5781,
      "zaku": 5782,
      "zadanie": 5783,
      "teor": 5784,
      "wyników": 5785,
      "wystawi": 5786,
      "wywoła": 5787,
      "winy": 5788,
      "mala": 5789,
      "matema": 5790,
      "przech": 5791,
      "odszko": 5792,
      "kuch": 5793,
      "cenę": 5794,
      "starych": 5795,
      "ciep": 5796,
      "przywód": 5797,
      "mur": 5798,
      "zeku": 5799,
      "zewnątrz": 5800,
      "super": 5801,
      "sied": 5802,
      "gim": 5803,
      "Nau": 5804,
      "skali": 5805,
      "grać": 5806,
      "któremu": 5807,
      "Macie": 5808,
      "Toru": 5809,
      "form": 5810,
      "Wystar": 5811,
      "tkami": 5812,
      "kryzy": 5813,
      "myśla": 5814,
      "Wiem": 5815,
      "męża": 5816,
      "szości": 5817,
      "Tyle": 5818,
      "ściami": 5819,
      "próby": 5820,
      "procesu": 5821,
      "król": 5822,
      "programie": 5823,
      "książek": 5824,
      "kilkunastu": 5825,
      "światło": 5826,
      "finansowych": 5827,
      "ambi": 5828,
      "regula": 5829,
      "posłowie": 5830,
      "niesienie": 5831,
      "wzrostu": 5832,
      "zakładu": 5833,
      "punkt": 5834,
      "przypadkach": 5835,
      "zamknię": 5836,
      "nauczyciel": 5837,
      "widzisz": 5838,
      "uzyskania": 5839,
      "choroby": 5840,
      "Poznaniu": 5841,
      "ilości": 5842,
      "Świat": 5843,
      "kilometrów": 5844,
      "uczci": 5845,
      "dyploma": 5846,
      "Jarosław": 5847,
      "''": 5848,
      "OP": 5849,
      "Trzy": 5850,
      "Tur": 5851,
      "Zale": 5852,
      "Zresztą": 5853,
      "brew": 5854,
      "iden": 5855,
      "nko": 5856,
      "swym": 5857,
      "uszko": 5858,
      "wszędzie": 5859,
      "zmy": 5860,
      "żka": 5861,
      "niezwyk": 5862,
      "nina": 5863,
      "pocie": 5864,
      "poga": 5865,
      "poprawi": 5866,
      "pojęcia": 5867,
      "rocznie": 5868,
      "liści": 5869,
      "zada": 5870,
      "zajęcia": 5871,
      "cina": 5872,
      "cicho": 5873,
      "wypadek": 5874,
      "rednie": 5875,
      "łami": 5876,
      "wiu": 5877,
      "mania": 5878,
      "las": 5879,
      "pań": 5880,
      "obni": 5881,
      "szep": 5882,
      "weso": 5883,
      "Popraw": 5884,
      "podda": 5885,
      "niejszym": 5886,
      "brakuje": 5887,
      "Masz": 5888,
      "straża": 5889,
      "nicą": 5890,
      "tyczną": 5891,
      "Chce": 5892,
      "padło": 5893,
      "polsko": 5894,
      "rąk": 5895,
      "ustawie": 5896,
      "parta": 5897,
      "większą": 5898,
      "myślą": 5899,
      "umiera": 5900,
      "Szwe": 5901,
      "zwycza": 5902,
      "Anna": 5903,
      "decyzja": 5904,
      "Informa": 5905,
      "drzew": 5906,
      "dziennego": 5907,
      "Białoru": 5908,
      "Kiel": 5909,
      "150": 5910,
      "lekko": 5911,
      "początek": 5912,
      "finansów": 5913,
      "zajmu": 5914,
      "lekarzy": 5915,
      "lizacja": 5916,
      "wzrost": 5917,
      "elektroni": 5918,
      "przewidzia": 5919,
      "rozwiązanie": 5920,
      "przyszłość": 5921,
      "operacji": 5922,
      "!!!": 5923,
      "wziął": 5924,
      "Wschod": 5925,
      "normalnie": 5926,
      "dziewczyny": 5927,
      "ból": 5928,
      "klientów": 5929,
      "Kaczyński": 5930,
      "Marian": 5931,
      "codziennie": 5932,
      "Ponadto": 5933,
      "koncert": 5934,
      "Ryszard": 5935,
      "wstrzą": 5936,
      "Bal": 5937,
      "Cóż": 5938,
      "Gre": 5939,
      "Pia": 5940,
      "Pół": 5941,
      "ela": 5942,
      "lor": 5943,
      "mowała": 5944,
      "nty": 5945,
      "umo": 5946,
      "wkę": 5947,
      "zgłasza": 5948,
      "ódz": 5949,
      "środek": 5950,
      "żała": 5951,
      "potrzeba": 5952,
      "lice": 5953,
      "kazuje": 5954,
      "zawo": 5955,
      "dole": 5956,
      "wyczer": 5957,
      "toż": 5958,
      "relacji": 5959,
      "wita": 5960,
      "wicy": 5961,
      "owaną": 5962,
      "ryt": 5963,
      "stare": 5964,
      "inną": 5965,
      "propa": 5966,
      "żywo": 5967,
      "Polo": 5968,
      "znał": 5969,
      "rozmowa": 5970,
      "gimna": 5971,
      "stylu": 5972,
      "...)": 5973,
      "byłby": 5974,
      "śniegu": 5975,
      "fach": 5976,
      "Wielko": 5977,
      "szono": 5978,
      "Marka": 5979,
      "Angli": 5980,
      "logia": 5981,
      "Regi": 5982,
      "powiedziałem": 5983,
      "publika": 5984,
      "rozpoczyna": 5985,
      "drzewa": 5986,
      "Kierow": 5987,
      "spotkaniu": 5988,
      "polityczne": 5989,
      "państwowych": 5990,
      "Cieka": 5991,
      "PRL": 5992,
      "próbował": 5993,
      "znaleźli": 5994,
      "nazwiska": 5995,
      "osobiście": 5996,
      "powierzch": 5997,
      "sukces": 5998,
      "Gdańsku": 5999,
      "Podobnie": 6000,
      "Kwaśniewski": 6001,
      "gwałtow": 6002,
      "itd": 6003,
      "Chciałbym": 6004,
      "Małgo": 6005,
      "senator": 6006,
      ":)": 6007,
      "?\"": 6008,
      "Har": 6009,
      "OS": 6010,
      "Skąd": 6011,
      "TE": 6012,
      "Urząd": 6013,
      "Ukrai": 6014,
      "agre": 6015,
      "lskiego": 6016,
      "ogo": 6017,
      "oczu": 6018,
      "opubli": 6019,
      "unie": 6020,
      "ują": 6021,
      "ułat": 6022,
      "czli": 6023,
      "nicze": 6024,
      "rab": 6025,
      "pojedy": 6026,
      "pobiera": 6027,
      "poszedł": 6028,
      "kotów": 6029,
      "koszu": 6030,
      "korespon": 6031,
      "zasłu": 6032,
      "zabiera": 6033,
      "mikro": 6034,
      "wykła": 6035,
      "tobie": 6036,
      "ref": 6037,
      "jazdy": 6038,
      "rzyło": 6039,
      "byle": 6040,
      "mać": 6041,
      "laz": 6042,
      "kier": 6043,
      "dzielni": 6044,
      "wiemy": 6045,
      "dużej": 6046,
      "jum": 6047,
      "bul": 6048,
      "powietrza": 6049,
      "rowane": 6050,
      "działać": 6051,
      "Wybor": 6052,
      "twoje": 6053,
      "druku": 6054,
      "drogą": 6055,
      "każdą": 6056,
      "wszech": 6057,
      "krok": 6058,
      "Coś": 6059,
      "wojna": 6060,
      "Warszawa": 6061,
      "liczbę": 6062,
      "pojazd": 6063,
      "Dzieci": 6064,
      "książkę": 6065,
      "dziewczyn": 6066,
      "trwać": 6067,
      "uczestników": 6068,
      "zdrowo": 6069,
      "punktów": 6070,
      "Ministerstwo": 6071,
      "celów": 6072,
      "trwały": 6073,
      "porozumienia": 6074,
      "Auto": 6075,
      "młodzież": 6076,
      "sprzęt": 6077,
      "zbliża": 6078,
      "Ostatnio": 6079,
      "Grzegorz": 6080,
      "integra": 6081,
      "Akademii": 6082,
      "Później": 6083,
      "32": 6084,
      "39": 6085,
      "Ele": 6086,
      "Młod": 6087,
      "Mój": 6088,
      "Okrę": 6089,
      "RE": 6090,
      "Sły": 6091,
      "Tro": 6092,
      "dną": 6093,
      "dół": 6094,
      "epo": 6095,
      "hod": 6096,
      "klat": 6097,
      "kowanie": 6098,
      "nó": 6099,
      "opan": 6100,
      "scho": 6101,
      "trzu": 6102,
      "uchy": 6103,
      "uniwersy": 6104,
      "wne": 6105,
      "zowie": 6106,
      "zbio": 6107,
      "śka": 6108,
      "niektórzy": 6109,
      "chów": 6110,
      "pomor": 6111,
      "poniżej": 6112,
      "zaprasza": 6113,
      "dopuszcza": 6114,
      "wykształ": 6115,
      "wygląd": 6116,
      "przer": 6117,
      "przesa": 6118,
      "kieli": 6119,
      "dziela": 6120,
      "woka": 6121,
      "pij": 6122,
      "pina": 6123,
      "żyłem": 6124,
      "czak": 6125,
      "cać": 6126,
      "lonej": 6127,
      "bol": 6128,
      "spośród": 6129,
      "duża": 6130,
      "dużą": 6131,
      "skre": 6132,
      "precy": 6133,
      "dobrą": 6134,
      "kłam": 6135,
      "fajnie": 6136,
      "pewnych": 6137,
      "pewnego": 6138,
      "standar": 6139,
      "ustala": 6140,
      "Tere": 6141,
      "nionym": 6142,
      "Stal": 6143,
      "środę": 6144,
      "własny": 6145,
      "własnego": 6146,
      "węd": 6147,
      "rozpoczął": 6148,
      "Prawo": 6149,
      "ogólno": 6150,
      "powoduje": 6151,
      "wejścia": 6152,
      "koszty": 6153,
      "roboty": 6154,
      "przyjęciem": 6155,
      "Włady": 6156,
      "uznał": 6157,
      "przyznał": 6158,
      "dyrekto": 6159,
      "prokuratura": 6160,
      "oboję": 6161,
      "burmistrz": 6162,
      "kwestii": 6163,
      "przewidy": 6164,
      "ciężko": 6165,
      "dużym": 6166,
      "skóry": 6167,
      "gazety": 6168,
      "Kazimierz": 6169,
      "dorosły": 6170,
      "wielkości": 6171,
      "ponownie": 6172,
      "Piotra": 6173,
      "ZSRR": 6174,
      "awans": 6175,
      "(\"": 6176,
      "34": 6177,
      "Ist": 6178,
      "JA": 6179,
      "Klubu": 6180,
      "LA": 6181,
      "Mod": 6182,
      "Mor": 6183,
      "NO": 6184,
      "Stro": 6185,
      "Słowa": 6186,
      "TY": 6187,
      "Współ": 6188,
      "abor": 6189,
      "ht": 6190,
      "kg": 6191,
      "lla": 6192,
      "sją": 6193,
      "ub": 6194,
      "uję": 6195,
      "uzu": 6196,
      "wrę": 6197,
      "zrezyg": 6198,
      "źć": 6199,
      "źró": 6200,
      "napo": 6201,
      "chłod": 6202,
      "pode": 6203,
      "szkę": 6204,
      "rośnie": 6205,
      "zastąpi": 6206,
      "zarazem": 6207,
      "domy": 6208,
      "tarzy": 6209,
      "wykry": 6210,
      "przekształ": 6211,
      "oddziału": 6212,
      "kiewicza": 6213,
      "ryj": 6214,
      "rynek": 6215,
      "kum": 6216,
      "dzieży": 6217,
      "armii": 6218,
      "białe": 6219,
      "zezwo": 6220,
      "znany": 6221,
      "rozsze": 6222,
      "dują": 6223,
      "podsu": 6224,
      "fila": 6225,
      "pul": 6226,
      "prawem": 6227,
      "rowanie": 6228,
      "czonego": 6229,
      "Zarząd": 6230,
      "Zakopa": 6231,
      "chami": 6232,
      "miany": 6233,
      "brata": 6234,
      "mięsa": 6235,
      "strasz": 6236,
      "nictwie": 6237,
      "nięciu": 6238,
      "padła": 6239,
      "imprezy": 6240,
      "eksp": 6241,
      "Czyli": 6242,
      "ważnie": 6243,
      "Marta": 6244,
      "musisz": 6245,
      "pytań": 6246,
      "ojczy": 6247,
      "2002": 6248,
      "głosem": 6249,
      "broń": 6250,
      "lepsze": 6251,
      "garni": 6252,
      "obecności": 6253,
      "gospodarczej": 6254,
      "polityka": 6255,
      "polityków": 6256,
      "tygodnia": 6257,
      "stawienia": 6258,
      "uchwa": 6259,
      "skarbu": 6260,
      "demon": 6261,
      "dobrego": 6262,
      "XVII": 6263,
      "dwor": 6264,
      "Szczegó": 6265,
      "lewicy": 6266,
      "metody": 6267,
      "konkursu": 6268,
      "Fundu": 6269,
      "szlache": 6270,
      "Zakła": 6271,
      "zwrócić": 6272,
      "najważniejsze": 6273,
      "kłopoty": 6274,
      "religij": 6275,
      "koalicji": 6276,
      "Jesteś": 6277,
      "Zjednoczonych": 6278,
      "wnioski": 6279,
      "33": 6280,
      "Jor": 6281,
      "Mło": 6282,
      "Oni": 6283,
      "dgo": 6284,
      "kową": 6285,
      "mode": 6286,
      "pch": 6287,
      "towała": 6288,
      "wny": 6289,
      "łała": 6290,
      "rzone": 6291,
      "nień": 6292,
      "nielega": 6293,
      "niowych": 6294,
      "chowa": 6295,
      "liny": 6296,
      "zama": 6297,
      "leci": 6298,
      "terów": 6299,
      "kibi": 6300,
      "wione": 6301,
      "wiony": 6302,
      "byliśmy": 6303,
      "niają": 6304,
      "stanął": 6305,
      "miesza": 6306,
      "mieliśmy": 6307,
      "run": 6308,
      "rup": 6309,
      "cono": 6310,
      "mera": 6311,
      "bora": 6312,
      "rozli": 6313,
      "budzi": 6314,
      "grana": 6315,
      "czonym": 6316,
      "dzona": 6317,
      "bram": 6318,
      "brać": 6319,
      "Domu": 6320,
      "tworzenia": 6321,
      "Mikoła": 6322,
      "towany": 6323,
      "byłaby": 6324,
      "tekstu": 6325,
      "grunt": 6326,
      "tkach": 6327,
      "ekspo": 6328,
      "Czytel": 6329,
      "Przypomni": 6330,
      "zwał": 6331,
      "pisem": 6332,
      "decyzje": 6333,
      "związek": 6334,
      "taria": 6335,
      "właściwego": 6336,
      "nowski": 6337,
      "walczyć": 6338,
      "Prac": 6339,
      "chirur": 6340,
      "obrazy": 6341,
      "drama": 6342,
      "morder": 6343,
      "land": 6344,
      "partia": 6345,
      "kultur": 6346,
      "wskaza": 6347,
      "kierowcy": 6348,
      "uchwały": 6349,
      "lekarze": 6350,
      "radnych": 6351,
      "stwierdza": 6352,
      "wykonania": 6353,
      "egzeku": 6354,
      "przedsięwzię": 6355,
      "portre": 6356,
      "dużych": 6357,
      "materiały": 6358,
      "oczekiwa": 6359,
      "społeczeństwo": 6360,
      "Stanisława": 6361,
      "powrotem": 6362,
      "www": 6363,
      "nadzor": 6364,
      "Międzynarod": 6365,
      "sejm": 6366,
      "Wiadomo": 6367,
      "intelektual": 6368,
      "46": 6369,
      "Fina": 6370,
      "Gar": 6371,
      "Obie": 6372,
      "Oprócz": 6373,
      "Obok": 6374,
      "PE": 6375,
      "Zdzi": 6376,
      "knie": 6377,
      "ntuje": 6378,
      "psu": 6379,
      "prow": 6380,
      "plek": 6381,
      "sne": 6382,
      "spełnia": 6383,
      "tch": 6384,
      "udo": 6385,
      "utru": 6386,
      "unek": 6387,
      "wka": 6388,
      "wskich": 6389,
      "wców": 6390,
      "wałem": 6391,
      "iera": 6392,
      "niona": 6393,
      "rana": 6394,
      "posto": 6395,
      "szpa": 6396,
      "kadencji": 6397,
      "zako": 6398,
      "zazna": 6399,
      "ler": 6400,
      "dostać": 6401,
      "wyrok": 6402,
      "wagi": 6403,
      "jadą": 6404,
      "masa": 6405,
      "malar": 6406,
      "przepraszam": 6407,
      "oddziały": 6408,
      "patrzeć": 6409,
      "ciepło": 6410,
      "obia": 6411,
      "przystąpi": 6412,
      "mując": 6413,
      "wery": 6414,
      "prosto": 6415,
      "bandy": 6416,
      "podnieść": 6417,
      "stoku": 6418,
      "czoł": 6419,
      "okrą": 6420,
      "bran": 6421,
      "Kom": 6422,
      "fana": 6423,
      "kolegi": 6424,
      "ziemię": 6425,
      "towar": 6426,
      "towano": 6427,
      "krea": 6428,
      "chody": 6429,
      "plany": 6430,
      "złożył": 6431,
      "śmieci": 6432,
      "Stary": 6433,
      "zdarzenia": 6434,
      "odpowiedział": 6435,
      "prezenta": 6436,
      "dziećmi": 6437,
      "powodów": 6438,
      "jedynym": 6439,
      "kurs": 6440,
      "filmów": 6441,
      "przedstawicieli": 6442,
      "zawodowej": 6443,
      "Ryb": 6444,
      "Policji": 6445,
      "Decy": 6446,
      "Żydów": 6447,
      "prowadzone": 6448,
      "opieki": 6449,
      "styczniu": 6450,
      "podstawowych": 6451,
      "XVI": 6452,
      "Wielkiej": 6453,
      "opłaty": 6454,
      "potwierdza": 6455,
      "uczniowie": 6456,
      "Narodowej": 6457,
      "Jezus": 6458,
      "świadomości": 6459,
      "rozmowę": 6460,
      "chłopak": 6461,
      "narodu": 6462,
      "Równie": 6463,
      "Edwar": 6464,
      "Stwierdzam": 6465,
      "(...)": 6466,
      "38": 6467,
      "Af": 6468,
      "GO": 6469,
      "Gminy": 6470,
      "Sprawie": 6471,
      "lka": 6472,
      "rowo": 6473,
      "towej": 6474,
      "uśmie": 6475,
      "udostęp": 6476,
      "udowod": 6477,
      "naby": 6478,
      "stałe": 6479,
      "niepo": 6480,
      "nieraz": 6481,
      "niebo": 6482,
      "niepod": 6483,
      "pogot": 6484,
      "postanowie": 6485,
      "ligi": 6486,
      "licznych": 6487,
      "koszy": 6488,
      "kate": 6489,
      "zapomni": 6490,
      "lera": 6491,
      "legen": 6492,
      "lewski": 6493,
      "dorad": 6494,
      "dokony": 6495,
      "tara": 6496,
      "występuje": 6497,
      "jaj": 6498,
      "maksy": 6499,
      "odnale": 6500,
      "pamią": 6501,
      "dzież": 6502,
      "wierzyć": 6503,
      "wor": 6504,
      "ruszył": 6505,
      "mury": 6506,
      "wez": 6507,
      "bija": 6508,
      "bibliote": 6509,
      "bawi": 6510,
      "znaczenia": 6511,
      "lon": 6512,
      "logów": 6513,
      "siedzą": 6514,
      "ankie": 6515,
      "styki": 6516,
      "najgor": 6517,
      "Jaka": 6518,
      "Jaki": 6519,
      "wzor": 6520,
      "kimś": 6521,
      "pewna": 6522,
      "stanow": 6523,
      "czuję": 6524,
      "pełnił": 6525,
      "Miro": 6526,
      "droż": 6527,
      "teren": 6528,
      "pływ": 6529,
      "Leszek": 6530,
      "rodzinie": 6531,
      "ostatniego": 6532,
      "szonych": 6533,
      "dźwi": 6534,
      "kowcy": 6535,
      "Warto": 6536,
      "hotelu": 6537,
      "kilkadziesiąt": 6538,
      "słychać": 6539,
      "entu": 6540,
      "trzymać": 6541,
      "zmierza": 6542,
      "rozpocznie": 6543,
      "zgodę": 6544,
      "nosić": 6545,
      "Goleni": 6546,
      "specjalisty": 6547,
      "dodatku": 6548,
      "wskazuje": 6549,
      "ciekawe": 6550,
      "pozostaje": 6551,
      "Niemców": 6552,
      "województwie": 6553,
      "pięćdziesiąt": 6554,
      "Krakowa": 6555,
      "wystarcza": 6556,
      "rozwiązania": 6557,
      "przestępstwa": 6558,
      "powstania": 6559,
      "sympa": 6560,
      "pójdzie": 6561,
      "głęboko": 6562,
      "kampanii": 6563,
      "Józefa": 6564,
      "telefoni": 6565,
      "czterdzieści": 6566,
      "Policjanci": 6567,
      "Szkoły": 6568,
      "świąty": 6569,
      "umożliwia": 6570,
      "pielęgnia": 6571,
      "Bli": 6572,
      "Bryta": 6573,
      "Mal": 6574,
      "Nowo": 6575,
      "Nowego": 6576,
      "Ochro": 6577,
      "Rej": 6578,
      "bl": 6579,
      "dże": 6580,
      "gmina": 6581,
      "opo": 6582,
      "okie": 6583,
      "oszu": 6584,
      "sowie": 6585,
      "tt": 6586,
      "towego": 6587,
      "wcy": 6588,
      "wchodzą": 6589,
      "nikomu": 6590,
      "zaby": 6591,
      "zabie": 6592,
      "zapowiedział": 6593,
      "zamówie": 6594,
      "lecie": 6595,
      "leniu": 6596,
      "tycy": 6597,
      "wyło": 6598,
      "reg": 6599,
      "przesła": 6600,
      "przestrzega": 6601,
      "odbyła": 6602,
      "kujemy": 6603,
      "staty": 6604,
      "staran": 6605,
      "wodo": 6606,
      "przyczyn": 6607,
      "sarz": 6608,
      "piszą": 6609,
      "czam": 6610,
      "metra": 6611,
      "podró": 6612,
      "podmio": 6613,
      "chodzę": 6614,
      "sądzi": 6615,
      "nus": 6616,
      "stracił": 6617,
      "Doro": 6618,
      "żonym": 6619,
      "dawca": 6620,
      "grupie": 6621,
      "marke": 6622,
      "marszałek": 6623,
      "kowskiej": 6624,
      "logicznych": 6625,
      "niosły": 6626,
      "2007": 6627,
      "Podstaw": 6628,
      "procesie": 6629,
      "Najbardziej": 6630,
      "pamięć": 6631,
      "Wolności": 6632,
      "zawodowych": 6633,
      "oceny": 6634,
      "szanse": 6635,
      "dyskusję": 6636,
      "regular": 6637,
      "charakterze": 6638,
      "zabrać": 6639,
      "zabranie": 6640,
      "muzyki": 6641,
      "papieża": 6642,
      "Joh": 6643,
      "Dyre": 6644,
      "przygotowy": 6645,
      "profeso": 6646,
      "urządzenia": 6647,
      "najbliższych": 6648,
      "parlamentar": 6649,
      "zapłacić": 6650,
      "sekretarz": 6651,
      "Olszty": 6652,
      "przyczyną": 6653,
      "absolwe": 6654,
      "uzasadni": 6655,
      "konsekwen": 6656,
      "TVP": 6657,
      "kościele": 6658,
      "Borowski": 6659,
      "mundu": 6660,
      "Chrystusa": 6661,
      "praktycznie": 6662,
      "błąd": 6663,
      "Specja": 6664,
      "!\"": 6665,
      "400": 6666,
      "Brze": 6667,
      "Fo": 6668,
      "Kowa": 6669,
      "Kod": 6670,
      "Ona": 6671,
      "kcje": 6672,
      "krwa": 6673,
      "mro": 6674,
      "pd": 6675,
      "sona": 6676,
      "spła": 6677,
      "tli": 6678,
      "ukra": 6679,
      "ubiegł": 6680,
      "zb": 6681,
      "łow": 6682,
      "czkach": 6683,
      "rzak": 6684,
      "stałem": 6685,
      "niepoko": 6686,
      "niowej": 6687,
      "szale": 6688,
      "jez": 6689,
      "rzec": 6690,
      "kapła": 6691,
      "zar": 6692,
      "dostanie": 6693,
      "tal": 6694,
      "tyków": 6695,
      "ówczes": 6696,
      "waniem": 6697,
      "wiru": 6698,
      "mane": 6699,
      "nota": 6700,
      "paru": 6701,
      "czynienia": 6702,
      "mon": 6703,
      "mieniem": 6704,
      "ścić": 6705,
      "przytom": 6706,
      "przypomni": 6707,
      "mul": 6708,
      "żyło": 6709,
      "biura": 6710,
      "bienia": 6711,
      "anu": 6712,
      "zorem": 6713,
      "władza": 6714,
      "tragi": 6715,
      "dobrej": 6716,
      "czący": 6717,
      "trzydzie": 6718,
      "waria": 6719,
      "koleżan": 6720,
      "pełne": 6721,
      "nionego": 6722,
      "Star": 6723,
      "stanowić": 6724,
      "wojnę": 6725,
      "godzinach": 6726,
      "logiczne": 6727,
      "logicznej": 6728,
      "kowanych": 6729,
      "podobno": 6730,
      "zachwy": 6731,
      "dziennie": 6732,
      "1995": 6733,
      "ofice": 6734,
      "informację": 6735,
      "kurcze": 6736,
      "pojawił": 6737,
      "koniecznie": 6738,
      "zwol": 6739,
      "członkiem": 6740,
      "wyraź": 6741,
      "miastach": 6742,
      "wnętrza": 6743,
      "święta": 6744,
      "zmiana": 6745,
      "narkoty": 6746,
      "model": 6747,
      "Franci": 6748,
      "regul": 6749,
      "dobrym": 6750,
      "zaczęło": 6751,
      "Ministerstwa": 6752,
      "zakresu": 6753,
      "wszelkich": 6754,
      "faktycznie": 6755,
      "redakcji": 6756,
      "handlu": 6757,
      "literatury": 6758,
      "zmarł": 6759,
      "zagrożenia": 6760,
      "przedmiotów": 6761,
      "zbrodni": 6762,
      "łódz": 6763,
      "Prezyden": 6764,
      "rozmai": 6765,
      "bohater": 6766,
      "Dari": 6767,
      "rozstrzyg": 6768,
      "apte": 6769,
      "):": 6770,
      "Am": 6771,
      "BP": 6772,
      "DA": 6773,
      "Dok": 6774,
      "Ex": 6775,
      "Juli": 6776,
      "Kos": 6777,
      "Mało": 6778,
      "Nowy": 6779,
      "Obywa": 6780,
      "Sch": 6781,
      "Zosta": 6782,
      "drę": 6783,
      "dowych": 6784,
      "lnik": 6785,
      "opóź": 6786,
      "sowe": 6787,
      "sprzyja": 6788,
      "uło": 6789,
      "ukoń": 6790,
      "zno": 6791,
      "nadzo": 6792,
      "nazwy": 6793,
      "niczy": 6794,
      "ram": 6795,
      "popiera": 6796,
      "rolni": 6797,
      "zap": 6798,
      "zapisa": 6799,
      "zamor": 6800,
      "zamiar": 6801,
      "dodać": 6802,
      "dostos": 6803,
      "tacy": 6804,
      "wysu": 6805,
      "łap": 6806,
      "dago": 6807,
      "larii": 6808,
      "kieszeni": 6809,
      "kurwa": 6810,
      "cień": 6811,
      "przywi": 6812,
      "pisz": 6813,
      "piszę": 6814,
      "szedłem": 6815,
      "pies": 6816,
      "pen": 6817,
      "bana": 6818,
      "znane": 6819,
      "cam": 6820,
      "rozwią": 6821,
      "taksów": 6822,
      "prawdy": 6823,
      "władzę": 6824,
      "rowali": 6825,
      "światy": 6826,
      "byłego": 6827,
      "bliżej": 6828,
      "studentów": 6829,
      "pełną": 6830,
      "polską": 6831,
      "gień": 6832,
      "stroju": 6833,
      "wspar": 6834,
      "tkowych": 6835,
      "grudniu": 6836,
      "większy": 6837,
      "spek": 6838,
      "Wielu": 6839,
      "kowana": 6840,
      "1994": 6841,
      "1996": 6842,
      "ściąg": 6843,
      "obecność": 6844,
      "filmy": 6845,
      "specjalne": 6846,
      "politycy": 6847,
      "udziałem": 6848,
      "partne": 6849,
      "uważają": 6850,
      "myślałem": 6851,
      "słuchać": 6852,
      "zamku": 6853,
      "dyskusja": 6854,
      "normal": 6855,
      "Kiedyś": 6856,
      "piękne": 6857,
      "moderni": 6858,
      "piłka": 6859,
      "Zespo": 6860,
      "zabrakło": 6861,
      "największych": 6862,
      "niesieniu": 6863,
      "lenda": 6864,
      "tematy": 6865,
      "nauczycieli": 6866,
      "porozumienie": 6867,
      "dziwne": 6868,
      "tradycji": 6869,
      "artykuł": 6870,
      "pojawiły": 6871,
      "sprzętu": 6872,
      "telefonu": 6873,
      "PZPR": 6874,
      "pojawiają": 6875,
      "archite": 6876,
      "olim": 6877,
      "fragment": 6878,
      "Prokuratura": 6879,
      "Następnie": 6880,
      "pomieszcze": 6881,
      "Adama": 6882,
      "prywatyzacji": 6883,
      "orygina": 6884,
      "Wystarczy": 6885,
      "56": 6886,
      "Di": 6887,
      "Ek": 6888,
      "Kro": 6889,
      "WO": 6890,
      "Wą": 6891,
      "akt": 6892,
      "afe": 6893,
      "pse": 6894,
      "sno": 6895,
      "ulu": 6896,
      "va": 6897,
      "wpadł": 6898,
      "zwi": 6899,
      "zia": 6900,
      "natury": 6901,
      "czci": 6902,
      "czno": 6903,
      "niemożliwe": 6904,
      "porzą": 6905,
      "pobytu": 6906,
      "jeść": 6907,
      "lide": 6908,
      "koja": 6909,
      "dozna": 6910,
      "tacza": 6911,
      "misji": 6912,
      "ówka": 6913,
      "wys": 6914,
      "wypi": 6915,
      "rent": 6916,
      "rekor": 6917,
      "referen": 6918,
      "owaliśmy": 6919,
      "odmien": 6920,
      "ryba": 6921,
      "dzier": 6922,
      "stabi": 6923,
      "moni": 6924,
      "satys": 6925,
      "piwo": 6926,
      "Pozdrawiam": 6927,
      "mecz": 6928,
      "niejszą": 6929,
      "pust": 6930,
      "sklepie": 6931,
      "sądzę": 6932,
      "nur": 6933,
      "najwięcej": 6934,
      "akcje": 6935,
      "przedłu": 6936,
      "ręku": 6937,
      "rękach": 6938,
      "...\"": 6939,
      "pytam": 6940,
      "skoczył": 6941,
      "Maciej": 6942,
      "służyć": 6943,
      "nikach": 6944,
      "Polskę": 6945,
      "tworzą": 6946,
      "samobój": 6947,
      "towanie": 6948,
      "dawcy": 6949,
      "dnienie": 6950,
      "komplek": 6951,
      "większym": 6952,
      "placu": 6953,
      "chęć": 6954,
      "właściciela": 6955,
      "Inspe": 6956,
      "prowadzili": 6957,
      "2004": 6958,
      "elementów": 6959,
      "ogół": 6960,
      "szczególności": 6961,
      "pracownik": 6962,
      "Najwyż": 6963,
      "żadne": 6964,
      "autora": 6965,
      "Lubli": 6966,
      "małżon": 6967,
      "śmierte": 6968,
      "krzyż": 6969,
      "uczelni": 6970,
      "miejscem": 6971,
      "członek": 6972,
      "wiadomość": 6973,
      "nazjum": 6974,
      "myślał": 6975,
      "Ktoś": 6976,
      "miliar": 6977,
      "wspólne": 6978,
      "szczyt": 6979,
      "głęb": 6980,
      "czarne": 6981,
      "założycie": 6982,
      "znaleziono": 6983,
      "samochodem": 6984,
      "godne": 6985,
      "największe": 6986,
      "amerykańskich": 6987,
      "dłoni": 6988,
      "potrafią": 6989,
      "otwarcie": 6990,
      "przekonać": 6991,
      "wyjść": 6992,
      "budynek": 6993,
      "efekt": 6994,
      "Senat": 6995,
      "emeryta": 6996,
      "wewnętrznych": 6997,
      "europejskiej": 6998,
      "oświadczył": 6999,
      "gałę": 7000,
      "Stefan": 7001,
      "postanowił": 7002,
      "ległość": 7003,
      "pozwolić": 7004,
      "Fir": 7005,
      "Bank": 7006,
      "wątpliwie": 7007,
      "niezależnie": 7008,
      "studiów": 7009,
      "formuł": 7010,
      "wspomnia": 7011,
      "Parlamentar": 7012,
      "Zdrowia": 7013,
      "Ogólno": 7014,
      "Funduszu": 7015,
      "Rejon": 7016,
      "37": 7017,
      "44": 7018,
      "Bał": 7019,
      "PI": 7020,
      "Ró": 7021,
      "Wreszcie": 7022,
      "XX": 7023,
      "dowy": 7024,
      "dliwość": 7025,
      "fię": 7026,
      "gminie": 7027,
      "izo": 7028,
      "nnego": 7029,
      "nkami": 7030,
      "oo": 7031,
      "opisa": 7032,
      "omawia": 7033,
      "pn": 7034,
      "ps": 7035,
      "tała": 7036,
      "uprawia": 7037,
      "vo": 7038,
      "wce": 7039,
      "wpła": 7040,
      "złe": 7041,
      "żnych": 7042,
      "żur": 7043,
      "str": 7044,
      "rant": 7045,
      "racjona": 7046,
      "post": 7047,
      "popra": 7048,
      "posu": 7049,
      "poszko": 7050,
      "kamien": 7051,
      "zacznie": 7052,
      "test": 7053,
      "tecznie": 7054,
      "tacja": 7055,
      "kina": 7056,
      "tona": 7057,
      "tobą": 7058,
      "lasu": 7059,
      "działo": 7060,
      "czyni": 7061,
      "morza": 7062,
      "przysługuje": 7063,
      "szyła": 7064,
      "powstanie": 7065,
      "powrót": 7066,
      "lustra": 7067,
      "bina": 7068,
      "lom": 7069,
      "lonego": 7070,
      "Nagle": 7071,
      "pusty": 7072,
      "skro": 7073,
      "stołu": 7074,
      "tegoro": 7075,
      "najwyżej": 7076,
      "dzeni": 7077,
      "czonej": 7078,
      "Zam": 7079,
      "Zaraz": 7080,
      "Zamiast": 7081,
      "Koście": 7082,
      "mówiłem": 7083,
      "Mag": 7084,
      "mięk": 7085,
      "Tom": 7086,
      "formę": 7087,
      "Japo": 7088,
      "straty": 7089,
      "festi": 7090,
      "Wydaje": 7091,
      "pełna": 7092,
      "Miała": 7093,
      "zdrowi": 7094,
      "ustawa": 7095,
      "karty": 7096,
      "kardyna": 7097,
      "Raz": 7098,
      "grupę": 7099,
      "ham": 7100,
      "pismo": 7101,
      "jednostek": 7102,
      "wydarzenia": 7103,
      "wydarzeń": 7104,
      "dwaj": 7105,
      "osobom": 7106,
      "okolicy": 7107,
      "firmie": 7108,
      "siłę": 7109,
      "pośpie": 7110,
      "powodzi": 7111,
      "kontrower": 7112,
      "konieczne": 7113,
      "konieczność": 7114,
      "obrad": 7115,
      "przedstawiciela": 7116,
      "kosztuje": 7117,
      "trybu": 7118,
      "Polak": 7119,
      "space": 7120,
      "wspólno": 7121,
      "Chociaż": 7122,
      "książka": 7123,
      "istnienia": 7124,
      "obrazić": 7125,
      "spokoj": 7126,
      "Przedsię": 7127,
      "południe": 7128,
      "bloku": 7129,
      "niemieckiej": 7130,
      "muzyka": 7131,
      "najlepsze": 7132,
      "skrzyż": 7133,
      "doświadczenia": 7134,
      "konkurs": 7135,
      "Krzysztofa": 7136,
      "uczucia": 7137,
      "zmianę": 7138,
      "ludności": 7139,
      "kandydatów": 7140,
      "fałszy": 7141,
      "rozpatrze": 7142,
      "zdążył": 7143,
      "usługi": 7144,
      "zdjęć": 7145,
      "łóżku": 7146,
      "ostatecznie": 7147,
      "posiedzeniu": 7148,
      "teoro": 7149,
      "radości": 7150,
      "nadzwyczaj": 7151,
      "pomyślał": 7152,
      "Otóż": 7153,
      "spotkał": 7154,
      "inicjaty": 7155,
      "konferencji": 7156,
      "umiejętności": 7157,
      "Partii": 7158,
      "biznes": 7159,
      "bezpośrednio": 7160,
      "serdecznie": 7161,
      "zeszłym": 7162,
      "Małgorza": 7163,
      "Finans": 7164,
      "49": 7165,
      "65": 7166,
      "AT": 7167,
      "Aż": 7168,
      "En": 7169,
      "Ire": 7170,
      "Mak": 7171,
      "Pła": 7172,
      "Pięk": 7173,
      "Unia": 7174,
      "ZA": 7175,
      "akade": 7176,
      "bem": 7177,
      "dki": 7178,
      "grz": 7179,
      "ksu": 7180,
      "ly": 7181,
      "lała": 7182,
      "mm": 7183,
      "nowie": 7184,
      "okiem": 7185,
      "ostwa": 7186,
      "pą": 7187,
      "umysł": 7188,
      "ya": 7189,
      "zka": 7190,
      "śmiesz": 7191,
      "Ża": 7192,
      "nało": 7193,
      "czku": 7194,
      "radni": 7195,
      "poto": 7196,
      "podzi": 7197,
      "pomnie": 7198,
      "pożegna": 7199,
      "jeździe": 7200,
      "lik": 7201,
      "gorz": 7202,
      "gory": 7203,
      "kalenda": 7204,
      "dostrze": 7205,
      "ciśnie": 7206,
      "wydał": 7207,
      "wymienia": 7208,
      "wybór": 7209,
      "recep": 7210,
      "przeję": 7211,
      "lans": 7212,
      "odwró": 7213,
      "kiele": 7214,
      "dzieła": 7215,
      "wiec": 7216,
      "cyk": 7217,
      "dycji": 7218,
      "miem": 7219,
      "przyda": 7220,
      "przyjąć": 7221,
      "siłą": 7222,
      "pii": 7223,
      "sześciu": 7224,
      "życi": 7225,
      "ordyna": 7226,
      "cają": 7227,
      "skrę": 7228,
      "szak": 7229,
      "stycznym": 7230,
      "najmłod": 7231,
      "Kont": 7232,
      "ństwem": 7233,
      "rtę": 7234,
      "ktorów": 7235,
      "pewnej": 7236,
      "polscy": 7237,
      "urodzi": 7238,
      "budowie": 7239,
      "Czym": 7240,
      "sprawdza": 7241,
      "Przypomina": 7242,
      "Szpita": 7243,
      "dźwię": 7244,
      "kowska": 7245,
      "Proje": 7246,
      "właściwym": 7247,
      "homo": 7248,
      "zachowanie": 7249,
      "2005": 7250,
      "walce": 7251,
      "dzieciom": 7252,
      "trafia": 7253,
      "wejść": 7254,
      "obecnej": 7255,
      "trudne": 7256,
      "związków": 7257,
      "Czeka": 7258,
      "powią": 7259,
      "kierowca": 7260,
      "dokument": 7261,
      "Barbara": 7262,
      "Władze": 7263,
      "wykorzystu": 7264,
      "historię": 7265,
      "historia": 7266,
      "Medy": 7267,
      "zginął": 7268,
      "rodzaj": 7269,
      "dziennikarz": 7270,
      "ogród": 7271,
      "wyjścia": 7272,
      "zainteresowania": 7273,
      "techniki": 7274,
      "okazuje": 7275,
      "kontaktu": 7276,
      "postępowanie": 7277,
      "lewic": 7278,
      "małych": 7279,
      "jasne": 7280,
      "uderzył": 7281,
      "Narodowego": 7282,
      "ilość": 7283,
      "granicę": 7284,
      "Jezusa": 7285,
      "pełnospraw": 7286,
      "uwzględnia": 7287,
      "Izrael": 7288,
      "drzwiami": 7289,
      "Henryk": 7290,
      "Sławo": 7291,
      "prowin": 7292,
      "FA": 7293,
      "Ile": 7294,
      "Ję": 7295,
      "Mó": 7296,
      "Pała": 7297,
      "Plat": 7298,
      "Vi": 7299,
      "Wale": 7300,
      "bał": 7301,
      "dnej": 7302,
      "ntem": 7303,
      "ogar": 7304,
      "opozy": 7305,
      "uto": 7306,
      "ubo": 7307,
      "uświa": 7308,
      "umar": 7309,
      "wnu": 7310,
      "wprowadzo": 7311,
      "wprawdzie": 7312,
      "zją": 7313,
      "złu": 7314,
      "żny": 7315,
      "char": 7316,
      "chia": 7317,
      "poci": 7318,
      "pojem": 7319,
      "szczone": 7320,
      "roman": 7321,
      "kop": 7322,
      "karę": 7323,
      "tero": 7324,
      "wymyśli": 7325,
      "tole": 7326,
      "rzym": 7327,
      "odległości": 7328,
      "kula": 7329,
      "czycy": 7330,
      "czytał": 7331,
      "mont": 7332,
      "wierzę": 7333,
      "ciepła": 7334,
      "prasy": 7335,
      "arcy": 7336,
      "powstały": 7337,
      "inżynie": 7338,
      "went": 7339,
      "week": 7340,
      "wewnątrz": 7341,
      "probo": 7342,
      "biało": 7343,
      "Poseł": 7344,
      "skimi": 7345,
      "rozsąd": 7346,
      "ducha": 7347,
      "sekun": 7348,
      "skan": 7349,
      "powietrzu": 7350,
      "tymczasem": 7351,
      "styczną": 7352,
      "styczna": 7353,
      "sądem": 7354,
      "rządzie": 7355,
      "żać": 7356,
      "miary": 7357,
      "bezdom": 7358,
      "teria": 7359,
      "terminu": 7360,
      "brał": 7361,
      "Koło": 7362,
      "Jaku": 7363,
      "ciąży": 7364,
      "Doda": 7365,
      "słabo": 7366,
      "stancji": 7367,
      "twoja": 7368,
      "sprawia": 7369,
      "panowie": 7370,
      "ustawę": 7371,
      "łącznie": 7372,
      "Tea": 7373,
      "nionej": 7374,
      "budowa": 7375,
      "płyt": 7376,
      "specyfi": 7377,
      "sprawdzić": 7378,
      "myślenia": 7379,
      "zdaje": 7380,
      "wszedł": 7381,
      "Wito": 7382,
      "klasie": 7383,
      "chwilą": 7384,
      "starszy": 7385,
      "wejście": 7386,
      "1993": 7387,
      "Jednym": 7388,
      "długości": 7389,
      "dziesiątych": 7390,
      "obrazu": 7391,
      "przyjdzie": 7392,
      "Spotka": 7393,
      "Wojsk": 7394,
      "proponowa": 7395,
      "niemieckich": 7396,
      "niemieckiego": 7397,
      "stopnia": 7398,
      "zakłada": 7399,
      "elektro": 7400,
      "oskarżenia": 7401,
      "kwesti": 7402,
      "znalazła": 7403,
      "Wielka": 7404,
      "protestu": 7405,
      "powyżej": 7406,
      "uczuć": 7407,
      "wykonywania": 7408,
      "emocji": 7409,
      "emocje": 7410,
      "skutecznie": 7411,
      "zwrócił": 7412,
      "łóżka": 7413,
      "średniowie": 7414,
      "Wysoka": 7415,
      "czterdzie": 7416,
      "córki": 7417,
      "przestrzeni": 7418,
      "nazwę": 7419,
      "drużyny": 7420,
      "Instytutu": 7421,
      "spółek": 7422,
      "prawdopodobniej": 7423,
      "Kobieta": 7424,
      "Okręg": 7425,
      "eksplo": 7426,
      "ubiegłego": 7427,
      "poprawek": 7428,
      "Przedsiębior": 7429,
      "42": 7430,
      "BI": 7431,
      "BO": 7432,
      "Man": 7433,
      "Ofi": 7434,
      "Okazało": 7435,
      "Pię": 7436,
      "Pło": 7437,
      "Ri": 7438,
      "ZUS": 7439,
      "anio": 7440,
      "ctwem": 7441,
      "kały": 7442,
      "ogień": 7443,
      "sny": 7444,
      "sla": 7445,
      "schroni": 7446,
      "twy": 7447,
      "wbrew": 7448,
      "zować": 7449,
      "zrealiz": 7450,
      "śmi": 7451,
      "źnia": 7452,
      "nagra": 7453,
      "nawią": 7454,
      "owne": 7455,
      "ownik": 7456,
      "owskich": 7457,
      "ownicy": 7458,
      "stowarzy": 7459,
      "porze": 7460,
      "pomi": 7461,
      "pochy": 7462,
      "roda": 7463,
      "roczy": 7464,
      "zamian": 7465,
      "zarejest": 7466,
      "zaplanowa": 7467,
      "dociera": 7468,
      "teru": 7469,
      "tary": 7470,
      "tyłu": 7471,
      "wymi": 7472,
      "wyła": 7473,
      "wykonu": 7474,
      "mac": 7475,
      "non": 7476,
      "przeby": 7477,
      "przeważnie": 7478,
      "odwro": 7479,
      "kiet": 7480,
      "paść": 7481,
      "obsługi": 7482,
      "powstał": 7483,
      "piwa": 7484,
      "pek": 7485,
      "pedago": 7486,
      "Począ": 7487,
      "conych": 7488,
      "rozum": 7489,
      "rozgry": 7490,
      "osy": 7491,
      "bunt": 7492,
      "szach": 7493,
      "nują": 7494,
      "najnow": 7495,
      "aktor": 7496,
      "traci": 7497,
      "cham": 7498,
      "okru": 7499,
      "termi": 7500,
      "mówimy": 7501,
      "Toma": 7502,
      "nięta": 7503,
      "koledzy": 7504,
      "czuć": 7505,
      "czuł": 7506,
      "Przemy": 7507,
      "chodziła": 7508,
      "karto": 7509,
      "tkowe": 7510,
      "Monika": 7511,
      "gruncie": 7512,
      "większa": 7513,
      "ktuali": 7514,
      "wydatków": 7515,
      "informuje": 7516,
      "Bydgo": 7517,
      "świetnie": 7518,
      "świadczenia": 7519,
      "chciałam": 7520,
      "zdolności": 7521,
      "obecny": 7522,
      "polityczny": 7523,
      "wersji": 7524,
      "Komitetu": 7525,
      "obronie": 7526,
      "nazwa": 7527,
      "Kongre": 7528,
      "miliona": 7529,
      "spać": 7530,
      "szans": 7531,
      "Działa": 7532,
      "śled": 7533,
      "określone": 7534,
      "Sier": 7535,
      "zaczęli": 7536,
      "zakończenie": 7537,
      "zainteresowanie": 7538,
      "wybrać": 7539,
      "trwała": 7540,
      "trwało": 7541,
      "opłat": 7542,
      "dwoma": 7543,
      "prosić": 7544,
      "mogłaby": 7545,
      "połowę": 7546,
      "zauważył": 7547,
      "wizyty": 7548,
      "Miejskiej": 7549,
      "transa": 7550,
      "emocjona": 7551,
      "hym": 7552,
      "podkreśli": 7553,
      "fanta": 7554,
      "poparcie": 7555,
      "metal": 7556,
      "okolicach": 7557,
      "płci": 7558,
      "wyjaśnić": 7559,
      "przemysłu": 7560,
      "Gazety": 7561,
      "edukacji": 7562,
      "Gospodarki": 7563,
      "przeszkadza": 7564,
      "odzna": 7565,
      "Poprawka": 7566,
      "Białorusi": 7567,
      "tożsamo": 7568,
      "źródeł": 7569,
      "entuzja": 7570,
      "spektak": 7571,
      "pseudo": 7572,
      "referendum": 7573,
      "CI": 7574,
      "CIA": 7575,
      "Dona": 7576,
      "Gor": 7577,
      "Hali": 7578,
      "Hist": 7579,
      "Kre": 7580,
      "Mnie": 7581,
      "Okla": 7582,
      "Obro": 7583,
      "Zda": 7584,
      "ami": 7585,
      "aku": 7586,
      "alar": 7587,
      "bki": 7588,
      "bała": 7589,
      "iła": 7590,
      "małej": 7591,
      "płu": 7592,
      "ut": 7593,
      "usi": 7594,
      "usił": 7595,
      "wście": 7596,
      "zza": 7597,
      "naczy": 7598,
      "niewy": 7599,
      "nitar": 7600,
      "radę": 7601,
      "pogar": 7602,
      "pogląd": 7603,
      "roma": 7604,
      "jenia": 7605,
      "koma": 7606,
      "komo": 7607,
      "zapytać": 7608,
      "dodał": 7609,
      "ówkę": 7610,
      "wyga": 7611,
      "waga": 7612,
      "łaska": 7613,
      "żeć": 7614,
      "żeni": 7615,
      "przebieg": 7616,
      "czymy": 7617,
      "ceń": 7618,
      "dena": 7619,
      "deszcz": 7620,
      "przychod": 7621,
      "przyjechał": 7622,
      "mus": 7623,
      "cjonu": 7624,
      "szeń": 7625,
      "pel": 7626,
      "progno": 7627,
      "biała": 7628,
      "zywania": 7629,
      "medi": 7630,
      "duszy": 7631,
      "owiska": 7632,
      "siedział": 7633,
      "bierz": 7634,
      "chodzenie": 7635,
      "niejszego": 7636,
      "skała": 7637,
      "styka": 7638,
      "grał": 7639,
      "bezpła": 7640,
      "głod": 7641,
      "kładzie": 7642,
      "mówisz": 7643,
      "190": 7644,
      "Kacz": 7645,
      "niętych": 7646,
      "Chci": 7647,
      "Dom": 7648,
      "półtora": 7649,
      "tników": 7650,
      "twor": 7651,
      "Przewod": 7652,
      "Ter": 7653,
      "Bole": 7654,
      "Radziec": 7655,
      "złożyć": 7656,
      "rządów": 7657,
      "żebym": 7658,
      "stanowisku": 7659,
      "Taka": 7660,
      "stosunek": 7661,
      "dźwięk": 7662,
      "Program": 7663,
      "chwila": 7664,
      "Były": 7665,
      "zasadach": 7666,
      "króle": 7667,
      "programów": 7668,
      "Biura": 7669,
      "terytoria": 7670,
      "dalsze": 7671,
      "dalszych": 7672,
      "gospodarczych": 7673,
      "spotkań": 7674,
      "Was": 7675,
      "polityce": 7676,
      "Czech": 7677,
      "chodząc": 7678,
      "kształt": 7679,
      "telewizor": 7680,
      "chciałby": 7681,
      "przyznać": 7682,
      "samochody": 7683,
      "tłumaczyć": 7684,
      "rejonie": 7685,
      "patrząc": 7686,
      "dziennikarze": 7687,
      "zakłady": 7688,
      "przewiduje": 7689,
      "najlepszych": 7690,
      "obowiązku": 7691,
      "przedsiębiorstw": 7692,
      "zatrudnienia": 7693,
      "dziwnego": 7694,
      "wange": 7695,
      "wielokrotnie": 7696,
      "przyczyny": 7697,
      "Krystyna": 7698,
      "sprawozdaw": 7699,
      "zdjęcie": 7700,
      "Hisz": 7701,
      "Hitle": 7702,
      "Miasto": 7703,
      "punkty": 7704,
      "wydawało": 7705,
      "pacjentów": 7706,
      "biskup": 7707,
      "okręg": 7708,
      "1939": 7709,
      "zwłoki": 7710,
      "Mieszkańcy": 7711,
      "defini": 7712,
      "potrzebuje": 7713,
      "Jednocześnie": 7714,
      "drzwiach": 7715,
      "pielgrzy": 7716,
      "Wałęsa": 7717,
      "Miller": 7718,
      "Rząd": 7719,
      "Uniwersytetu": 7720,
      "przekracza": 7721,
      "kontakty": 7722,
      "Powiat": 7723,
      "tragedii": 7724,
      "swobod": 7725,
      "Również": 7726,
      "Obywatel": 7727,
      "powiąza": 7728,
      "Histor": 7729,
      "CIE": 7730,
      "Dia": 7731,
      "Hele": 7732,
      "Ir": 7733,
      "Któ": 7734,
      "Mc": 7735,
      "SI": 7736,
      "Uni": 7737,
      "aa": 7738,
      "ogrze": 7739,
      "pnie": 7740,
      "psa": 7741,
      "ssa": 7742,
      "trzę": 7743,
      "ule": 7744,
      "ulega": 7745,
      "ukrai": 7746,
      "napisać": 7747,
      "czała": 7748,
      "niedługo": 7749,
      "pot": 7750,
      "porę": 7751,
      "podzię": 7752,
      "rocz": 7753,
      "rosną": 7754,
      "koł": 7755,
      "kaw": 7756,
      "kaja": 7757,
      "zami": 7758,
      "zakon": 7759,
      "zarzuca": 7760,
      "zaopa": 7761,
      "lewo": 7762,
      "doprowadzi": 7763,
      "dostała": 7764,
      "doprowadzić": 7765,
      "cisza": 7766,
      "ówczas": 7767,
      "wymiar": 7768,
      "wając": 7769,
      "repor": 7770,
      "widziałam": 7771,
      "przerywa": 7772,
      "lak": 7773,
      "odbył": 7774,
      "odbior": 7775,
      "odpor": 7776,
      "niać": 7777,
      "czyłem": 7778,
      "cerowi": 7779,
      "start": 7780,
      "starego": 7781,
      "wiedziała": 7782,
      "wość": 7783,
      "miecki": 7784,
      "deszczu": 7785,
      "przypuszcza": 7786,
      "przypadek": 7787,
      "muzeum": 7788,
      "salo": 7789,
      "powe": 7790,
      "powstała": 7791,
      "powięk": 7792,
      "szeniem": 7793,
      "promieni": 7794,
      "czach": 7795,
      "Połu": 7796,
      "bak": 7797,
      "podjął": 7798,
      "Nacze": 7799,
      "skać": 7800,
      "powiecie": 7801,
      "równy": 7802,
      "Zarządu": 7803,
      "rzami": 7804,
      "brat": 7805,
      "słod": 7806,
      "swoimi": 7807,
      "fajne": 7808,
      "robili": 7809,
      "jakości": 7810,
      "rannych": 7811,
      "różno": 7812,
      "różnic": 7813,
      "Stanach": 7814,
      "Lecha": 7815,
      "reklam": 7816,
      "liwością": 7817,
      "kowało": 7818,
      "mowali": 7819,
      "zachować": 7820,
      "ciągnął": 7821,
      "kościo": 7822,
      "lepszy": 7823,
      "programy": 7824,
      "ulicach": 7825,
      "dzieckiem": 7826,
      "żadnym": 7827,
      "produk": 7828,
      "przedstawiciel": 7829,
      "przyjaciel": 7830,
      "mentarzy": 7831,
      "głównych": 7832,
      "głównym": 7833,
      "trybie": 7834,
      "warunkiem": 7835,
      "Dzień": 7836,
      "podejrze": 7837,
      "wróciła": 7838,
      "Dzisiaj": 7839,
      "sędzia": 7840,
      "książce": 7841,
      "zależności": 7842,
      "padają": 7843,
      "miesiącu": 7844,
      "miesiącach": 7845,
      "tłumaczył": 7846,
      "sprzedaż": 7847,
      "poprawkę": 7848,
      "dziesięcio": 7849,
      "nadziei": 7850,
      "zapach": 7851,
      "pracują": 7852,
      "Ciebie": 7853,
      "lizację": 7854,
      "poziomu": 7855,
      "osiąga": 7856,
      "problemem": 7857,
      "pójść": 7858,
      "rozpoczęła": 7859,
      "odpowiedzialność": 7860,
      "inwestycje": 7861,
      "zabawy": 7862,
      "fałsz": 7863,
      "transportu": 7864,
      "Zakładu": 7865,
      "pytałem": 7866,
      "sprawozdania": 7867,
      "funduszu": 7868,
      "Prawdo": 7869,
      "zatrzymał": 7870,
      "zgadza": 7871,
      "Pierwsza": 7872,
      "gwiazd": 7873,
      "teore": 7874,
      "zwiększa": 7875,
      "odcinku": 7876,
      "nagrodę": 7877,
      "ośmiu": 7878,
      "ogromne": 7879,
      "rozmowie": 7880,
      "Jesteśmy": 7881,
      "żonę": 7882,
      "Agencji": 7883,
      "parafii": 7884,
      "zbiór": 7885,
      "Człowiek": 7886,
      "Demokratycznej": 7887,
      "akademi": 7888,
      "Oklaski": 7889,
      "52": 7890,
      "Ach": 7891,
      "Aust": 7892,
      "Cały": 7893,
      "Nowe": 7894,
      "Spół": 7895,
      "Sprawa": 7896,
      "Tłu": 7897,
      "dż": 7898,
      "dwi": 7899,
      "ee": 7900,
      "iny": 7901,
      "nna": 7902,
      "opowie": 7903,
      "spytał": 7904,
      "tniu": 7905,
      "unika": 7906,
      "wnosi": 7907,
      "zre": 7908,
      "zlikwi": 7909,
      "naród": 7910,
      "cznością": 7911,
      "stia": 7912,
      "nieniu": 7913,
      "nienawi": 7914,
      "niczej": 7915,
      "poczę": 7916,
      "pokaza": 7917,
      "postrzega": 7918,
      "lig": 7919,
      "kora": 7920,
      "kawiar": 7921,
      "zazwyczaj": 7922,
      "leniem": 7923,
      "dokład": 7924,
      "dopuści": 7925,
      "wyle": 7926,
      "wytwarza": 7927,
      "łańcu": 7928,
      "jami": 7929,
      "widz": 7930,
      "labora": 7931,
      "dziad": 7932,
      "ceniem": 7933,
      "stami": 7934,
      "czeństwa": 7935,
      "dykt": 7936,
      "dynami": 7937,
      "pion": 7938,
      "luje": 7939,
      "spojrzał": 7940,
      "setki": 7941,
      "ciach": 7942,
      "słał": 7943,
      "strach": 7944,
      "kąpie": 7945,
      "wzrok": 7946,
      "fascy": 7947,
      "Karoli": 7948,
      "pełnej": 7949,
      "towarów": 7950,
      "ustalić": 7951,
      "tekście": 7952,
      "ekstra": 7953,
      "Sztu": 7954,
      "wydatki": 7955,
      "dowci": 7956,
      "hitle": 7957,
      "osobę": 7958,
      "hono": 7959,
      "Także": 7960,
      "trafiła": 7961,
      "interesuje": 7962,
      "społecznego": 7963,
      "1990": 7964,
      "wysokość": 7965,
      "189": 7966,
      "Mieczy": 7967,
      "specjalnych": 7968,
      "ciemno": 7969,
      "przyjaź": 7970,
      "Jedna": 7971,
      "partner": 7972,
      "czekają": 7973,
      "westch": 7974,
      "towarzystwie": 7975,
      "kierownik": 7976,
      "Polityki": 7977,
      "głębi": 7978,
      "funkcję": 7979,
      "wpływem": 7980,
      "prawic": 7981,
      "realizację": 7982,
      "letnią": 7983,
      "opinię": 7984,
      "czekał": 7985,
      "potrzebna": 7986,
      "równocześnie": 7987,
      "zdecydowa": 7988,
      "Czasem": 7989,
      "analiz": 7990,
      "obejmuje": 7991,
      "Joan": 7992,
      "Izbo": 7993,
      "radyka": 7994,
      "szkolenia": 7995,
      "biegać": 7996,
      "Straży": 7997,
      "profesjona": 7998,
      "kwietniu": 7999,
      "Super": 8000,
      "małym": 8001,
      "urządzeń": 8002,
      "1975": 8003,
      "należności": 8004,
      "regionu": 8005,
      "całość": 8006,
      "sekretarza": 8007,
      "dodatkowe": 8008,
      "1945": 8009,
      "przodu": 8010,
      "Krajowej": 8011,
      "atmosfery": 8012,
      "ekspery": 8013,
      "fotograf": 8014,
      "ofiary": 8015,
      "czytelników": 8016,
      "zaufania": 8017,
      "niezbędne": 8018,
      "marszałka": 8019,
      "dyspozy": 8020,
      "rezerw": 8021,
      "Należy": 8022,
      "Czerwo": 8023,
      "oglądać": 8024,
      "Sojuszu": 8025,
      "Zygmunt": 8026,
      "uniknąć": 8027,
      "Ochrony": 8028,
      "Prawdopodobnie": 8029,
      "Afry": 8030,
      "GA": 8031,
      "Her": 8032,
      "NE": 8033,
      "Oli": 8034,
      "Tran": 8035,
      "WY": 8036,
      "Win": 8037,
      "Wówczas": 8038,
      "ksa": 8039,
      "kse": 8040,
      "knąć": 8041,
      "of": 8042,
      "och": 8043,
      "ssi": 8044,
      "skon": 8045,
      "tką": 8046,
      "ńsko": 8047,
      "ślu": 8048,
      "ient": 8049,
      "strój": 8050,
      "niewątpliwie": 8051,
      "pobi": 8052,
      "podział": 8053,
      "pokar": 8054,
      "szona": 8055,
      "szliśmy": 8056,
      "lili": 8057,
      "liwe": 8058,
      "goty": 8059,
      "kasy": 8060,
      "zarob": 8061,
      "zaprezent": 8062,
      "lewej": 8063,
      "nety": 8064,
      "tylu": 8065,
      "wyszła": 8066,
      "wyjeżdża": 8067,
      "masy": 8068,
      "maju": 8069,
      "nosił": 8070,
      "odra": 8071,
      "odro": 8072,
      "odło": 8073,
      "oddać": 8074,
      "ceni": 8075,
      "cech": 8076,
      "czele": 8077,
      "przygo": 8078,
      "przyby": 8079,
      "przypomnie": 8080,
      "powstrzy": 8081,
      "pilo": 8082,
      "gada": 8083,
      "zechce": 8084,
      "banków": 8085,
      "znaczą": 8086,
      "boże": 8087,
      "rozło": 8088,
      "owicie": 8089,
      "podnie": 8090,
      "podpis": 8091,
      "syl": 8092,
      "chorych": 8093,
      "niejszej": 8094,
      "skór": 8095,
      "prawnych": 8096,
      "akcja": 8097,
      "wład": 8098,
      "rządzą": 8099,
      "traktu": 8100,
      "presji": 8101,
      "Matka": 8102,
      "soju": 8103,
      "Para": 8104,
      "śnieg": 8105,
      "Kana": 8106,
      "Wydaw": 8107,
      "Przepraszam": 8108,
      "wiersz": 8109,
      "pracą": 8110,
      "piętra": 8111,
      "pięcio": 8112,
      "Moja": 8113,
      "Rado": 8114,
      "Raci": 8115,
      "Stan": 8116,
      "habili": 8117,
      "mniejsze": 8118,
      "Wieczo": 8119,
      "zdań": 8120,
      "rowski": 8121,
      "Witam": 8122,
      "pierwo": 8123,
      "osobą": 8124,
      "słyszał": 8125,
      "kowali": 8126,
      "świadków": 8127,
      "wojewoda": 8128,
      "węgla": 8129,
      "Białego": 8130,
      "adwoka": 8131,
      "autory": 8132,
      "krzyknął": 8133,
      "politycznego": 8134,
      "politycznym": 8135,
      "młode": 8136,
      "finansowanie": 8137,
      "wyjazd": 8138,
      "klucz": 8139,
      "pomnik": 8140,
      "święto": 8141,
      "prezydentem": 8142,
      "miesiąca": 8143,
      "Pewnie": 8144,
      "modlit": 8145,
      "polemi": 8146,
      "egzem": 8147,
      "Przedstawi": 8148,
      "stosunki": 8149,
      "przyszłego": 8150,
      "burmistrza": 8151,
      "potrafił": 8152,
      "ludzkie": 8153,
      "rolnictwa": 8154,
      "obowiązki": 8155,
      "1000": 8156,
      "Kraków": 8157,
      "chcąc": 8158,
      "ciężkie": 8159,
      "zatrudnia": 8160,
      "jrzała": 8161,
      "podobie": 8162,
      "połowa": 8163,
      "Związek": 8164,
      "reprezent": 8165,
      "europejskich": 8166,
      "brzmi": 8167,
      "Wspó": 8168,
      "NIK": 8169,
      "uśmiechnął": 8170,
      "szeroko": 8171,
      "Śląsku": 8172,
      "Podobno": 8173,
      "siostra": 8174,
      "harmo": 8175,
      "koalicja": 8176,
      "Aleksandra": 8177,
      "ministrem": 8178,
      "ośrodek": 8179,
      "praktyce": 8180,
      "oczami": 8181,
      "sklepu": 8182,
      "plus": 8183,
      "otworzył": 8184,
      "podstawy": 8185,
      "facet": 8186,
      "wakacje": 8187,
      "inteligen": 8188,
      "weźmie": 8189,
      "prędkości": 8190,
      "oddech": 8191,
      "Rozumiem": 8192,
      "Londynie": 8193,
      "pułkow": 8194,
      "reflek": 8195,
      "przerwy": 8196,
      "demonstra": 8197,
      "Afgani": 8198,
      "podróży": 8199,
      "Finansów": 8200,
      "egzempla": 8201,
      "59": 8202,
      "800": 8203,
      ":-)": 8204,
      "Ener": 8205,
      "Hal": 8206,
      "Ira": 8207,
      "Kwi": 8208,
      "Lw": 8209,
      "RY": 8210,
      "Skoro": 8211,
      "Wan": 8212,
      "Zi": 8213,
      "aspe": 8214,
      "awan": 8215,
      "brą": 8216,
      "drą": 8217,
      "grę": 8218,
      "lskiej": 8219,
      "nności": 8220,
      "otworzy": 8221,
      "smo": 8222,
      "sprzeciw": 8223,
      "snęła": 8224,
      "sformuł": 8225,
      "tin": 8226,
      "ucieka": 8227,
      "van": 8228,
      "órek": 8229,
      "śniu": 8230,
      "Żad": 8231,
      "ier": 8232,
      "naru": 8233,
      "narusza": 8234,
      "owałam": 8235,
      "niespo": 8236,
      "niepotrzeb": 8237,
      "chał": 8238,
      "pokaz": 8239,
      "postać": 8240,
      "dzkiego": 8241,
      "liwy": 8242,
      "gość": 8243,
      "konia": 8244,
      "zato": 8245,
      "zain": 8246,
      "letniej": 8247,
      "dochodzi": 8248,
      "tata": 8249,
      "mić": 8250,
      "tyfi": 8251,
      "wyka": 8252,
      "tonie": 8253,
      "łamach": 8254,
      "wiod": 8255,
      "wiło": 8256,
      "mawiał": 8257,
      "przeszko": 8258,
      "przekony": 8259,
      "rytu": 8260,
      "wiedzę": 8261,
      "wiedziałem": 8262,
      "cyf": 8263,
      "dycha": 8264,
      "prawej": 8265,
      "turą": 8266,
      "sili": 8267,
      "piśmie": 8268,
      "szereg": 8269,
      "proste": 8270,
      "barok": 8271,
      "znanych": 8272,
      "podwój": 8273,
      "podjąć": 8274,
      "ben": 8275,
      "ałych": 8276,
      "stycznie": 8277,
      "zory": 8278,
      "Jel": 8279,
      "najprawdopodobniej": 8280,
      "przedszko": 8281,
      "rządy": 8282,
      "żają": 8283,
      "Zanim": 8284,
      "albu": 8285,
      "braci": 8286,
      "słem": 8287,
      "służy": 8288,
      "dzania": 8289,
      "gene": 8290,
      "Polskich": 8291,
      "fata": 8292,
      "faktu": 8293,
      "padów": 8294,
      "północy": 8295,
      "Micha": 8296,
      "rzucić": 8297,
      "wsch": 8298,
      "towane": 8299,
      "jakość": 8300,
      "Tele": 8301,
      "Bogda": 8302,
      "Radia": 8303,
      "płyną": 8304,
      "mieszkać": 8305,
      "rowała": 8306,
      "wydania": 8307,
      "odpowiedzieć": 8308,
      "mózgu": 8309,
      "hipo": 8310,
      "kowców": 8311,
      "ojcem": 8312,
      "słyszy": 8313,
      "świetle": 8314,
      "niosą": 8315,
      "podaje": 8316,
      "2003": 8317,
      "korzyści": 8318,
      "zgodni": 8319,
      "takimi": 8320,
      "społeczne": 8321,
      "pracownika": 8322,
      "1991": 8323,
      "jedyny": 8324,
      "wyższe": 8325,
      "lekcji": 8326,
      "Woli": 8327,
      "przyjaciele": 8328,
      "spółdziel": 8329,
      "Konstytu": 8330,
      "mężczyźni": 8331,
      "przyjęcia": 8332,
      "zapewnić": 8333,
      "lokalu": 8334,
      "następnego": 8335,
      "języku": 8336,
      "założenia": 8337,
      "Tutaj": 8338,
      "Życie": 8339,
      "wyborczej": 8340,
      "spokoju": 8341,
      "czytania": 8342,
      "patrio": 8343,
      "zaczęły": 8344,
      "amerykański": 8345,
      "państwowej": 8346,
      "otrzymała": 8347,
      "nauczyciele": 8348,
      "wzięli": 8349,
      "zaczynają": 8350,
      "wojskowych": 8351,
      "Publi": 8352,
      "wyjątkiem": 8353,
      "jasna": 8354,
      "mężczyzny": 8355,
      "zajęć": 8356,
      "tajemnicy": 8357,
      "kandydata": 8358,
      "Funda": 8359,
      "logię": 8360,
      "Gdańska": 8361,
      "Szef": 8362,
      "stref": 8363,
      "poszuki": 8364,
      "pojawiła": 8365,
      "zadowolony": 8366,
      "różnica": 8367,
      "kwoty": 8368,
      "dojść": 8369,
      "babcia": 8370,
      "dbać": 8371,
      "ćwiczenia": 8372,
      "uroczystości": 8373,
      "konstrukcji": 8374,
      "okupa": 8375,
      "Wrocławiu": 8376,
      "deficy": 8377,
      "przyrody": 8378,
      "placówki": 8379,
      "zwrot": 8380,
      "oszczędności": 8381,
      "obszarze": 8382,
      "eduka": 8383,
      "słuchał": 8384,
      "RZE": 8385,
      "przepisach": 8386,
      "trzeciego": 8387,
      "nastolat": 8388,
      "anonim": 8389,
      "Dziennika": 8390,
      "dorosłych": 8391,
      "Dyrektor": 8392,
      "dzierża": 8393,
      "Mógł": 8394,
      "weeken": 8395,
      "55": 8396,
      "Ab": 8397,
      "Art": 8398,
      "Czło": 8399,
      "Dale": 8400,
      "Eu": 8401,
      "Grze": 8402,
      "Klub": 8403,
      "LO": 8404,
      "Oba": 8405,
      "Pru": 8406,
      "Prowa": 8407,
      "Róż": 8408,
      "Twoje": 8409,
      "VAT": 8410,
      "grza": 8411,
      "hała": 8412,
      "lki": 8413,
      "lnictwa": 8414,
      "oznaj": 8415,
      "opuszcza": 8416,
      "tło": 8417,
      "uu": 8418,
      "uspo": 8419,
      "wpisa": 8420,
      "łzy": 8421,
      "łowski": 8422,
      "Świe": 8423,
      "czkami": 8424,
      "stkę": 8425,
      "nieniem": 8426,
      "niekiedy": 8427,
      "gosła": 8428,
      "zao": 8429,
      "zadaniem": 8430,
      "zaatak": 8431,
      "zaakcep": 8432,
      "ciar": 8433,
      "tani": 8434,
      "wyprze": 8435,
      "wymu": 8436,
      "wystaw": 8437,
      "wystawia": 8438,
      "wyobrazić": 8439,
      "toczy": 8440,
      "waha": 8441,
      "wisz": 8442,
      "widziała": 8443,
      "marek": 8444,
      "damia": 8445,
      "nos": 8446,
      "przesłucha": 8447,
      "dzisz": 8448,
      "cechy": 8449,
      "mość": 8450,
      "łom": 8451,
      "ktry": 8452,
      "mywać": 8453,
      "przytu": 8454,
      "przyspie": 8455,
      "szyły": 8456,
      "siód": 8457,
      "szeć": 8458,
      "owemu": 8459,
      "biuro": 8460,
      "Poja": 8461,
      "cof": 8462,
      "znana": 8463,
      "boli": 8464,
      "rozry": 8465,
      "rozbi": 8466,
      "podniósł": 8467,
      "skraj": 8468,
      "prawdą": 8469,
      "stom": 8470,
      "częścią": 8471,
      "owoc": 8472,
      "cudow": 8473,
      "góra": 8474,
      "Mają": 8475,
      "słowia": 8476,
      "słup": 8477,
      "Kami": 8478,
      "nięto": 8479,
      "padły": 8480,
      "pewną": 8481,
      "Dotychczas": 8482,
      "robisz": 8483,
      "pełnym": 8484,
      "tworzyć": 8485,
      "zostałe": 8486,
      "większych": 8487,
      "trudem": 8488,
      "planu": 8489,
      "umowę": 8490,
      "auten": 8491,
      "mniejszości": 8492,
      "Wieś": 8493,
      "rodziną": 8494,
      "powiadomi": 8495,
      "żebyś": 8496,
      "rowskiego": 8497,
      "żące": 8498,
      "chętnych": 8499,
      "decydu": 8500,
      "logiczny": 8501,
      "Profe": 8502,
      "stworzyć": 8503,
      "świadczy": 8504,
      "zrobiło": 8505,
      "Prawie": 8506,
      "nowany": 8507,
      "oficer": 8508,
      "terytorium": 8509,
      "wyższych": 8510,
      "kilkudziesięciu": 8511,
      "określenia": 8512,
      "okazał": 8513,
      "Watyka": 8514,
      "składni": 8515,
      "kosztow": 8516,
      "Dziew": 8517,
      "szansa": 8518,
      "Muszę": 8519,
      "następne": 8520,
      "istnieją": 8521,
      "letnich": 8522,
      "przejść": 8523,
      "przyznaje": 8524,
      "mody": 8525,
      "piłkar": 8526,
      "sensa": 8527,
      "dobrych": 8528,
      "określony": 8529,
      "dłoń": 8530,
      "Czas": 8531,
      "cierpi": 8532,
      "spira": 8533,
      "uzyskać": 8534,
      "znajomych": 8535,
      "konkursie": 8536,
      "socjalisty": 8537,
      "Bezpie": 8538,
      "choroba": 8539,
      "grupowania": 8540,
      "osiągnięcia": 8541,
      "odrzucenie": 8542,
      "propozycji": 8543,
      "uprawnień": 8544,
      "świąte": 8545,
      "jesienią": 8546,
      "kompeten": 8547,
      "dyscyplinar": 8548,
      "wyjaśnił": 8549,
      "występują": 8550,
      "sąsiadów": 8551,
      "Paryżu": 8552,
      "poglądy": 8553,
      "jeziora": 8554,
      "kategorii": 8555,
      "przycisk": 8556,
      "Regiona": 8557,
      "Dariusz": 8558,
      "!)": 8559,
      "95": 8560,
      "99": 8561,
      "KS": 8562,
      "Mon": 8563,
      "Opie": 8564,
      "Ucze": 8565,
      "WIE": 8566,
      "ZY": 8567,
      "Zoba": 8568,
      "gma": 8569,
      "gnę": 8570,
      "lda": 8571,
      "nką": 8572,
      "ostrzega": 8573,
      "rch": 8574,
      "uni": 8575,
      "uzbro": 8576,
      "wskie": 8577,
      "wszczę": 8578,
      "wstał": 8579,
      "Łą": 8580,
      "śnią": 8581,
      "żbie": 8582,
      "’’": 8583,
      "rał": 8584,
      "posłu": 8585,
      "jek": 8586,
      "liński": 8587,
      "zasię": 8588,
      "lesie": 8589,
      "dominu": 8590,
      "cik": 8591,
      "tać": 8592,
      "tację": 8593,
      "tyma": 8594,
      "wywie": 8595,
      "wyba": 8596,
      "wypoczy": 8597,
      "wasz": 8598,
      "wamy": 8599,
      "res": 8600,
      "reformy": 8601,
      "restruktury": 8602,
      "japo": 8603,
      "wiona": 8604,
      "nografi": 8605,
      "przetarg": 8606,
      "papier": 8607,
      "panem": 8608,
      "ryka": 8609,
      "kuli": 8610,
      "dyżur": 8611,
      "obi": 8612,
      "obwod": 8613,
      "obszer": 8614,
      "denerw": 8615,
      "przykry": 8616,
      "muni": 8617,
      "powtarz": 8618,
      "szewskiego": 8619,
      "insta": 8620,
      "czami": 8621,
      "conym": 8622,
      "zysku": 8623,
      "losu": 8624,
      "podał": 8625,
      "siek": 8626,
      "sieć": 8627,
      "styl": 8628,
      "dzej": 8629,
      "rowana": 8630,
      "czość": 8631,
      "Zawod": 8632,
      "bezpoś": 8633,
      "stępie": 8634,
      "cudzo": 8635,
      "Maj": 8636,
      "mięso": 8637,
      "głosi": 8638,
      "straci": 8639,
      "nicki": 8640,
      "działają": 8641,
      "działaczy": 8642,
      "żonej": 8643,
      "Mickie": 8644,
      "Przede": 8645,
      "samorządu": 8646,
      "rzuci": 8647,
      "nioną": 8648,
      "kompromi": 8649,
      "uważał": 8650,
      "budować": 8651,
      "budowany": 8652,
      "mieszkaniec": 8653,
      "Lewicy": 8654,
      "Przyj": 8655,
      "Szkół": 8656,
      "wydanie": 8657,
      "byłych": 8658,
      "chunek": 8659,
      "Reda": 8660,
      "jakimi": 8661,
      "firmę": 8662,
      "ntami": 8663,
      "interesów": 8664,
      "wysoki": 8665,
      "wysokiej": 8666,
      "seks": 8667,
      "żadna": 8668,
      "ponadto": 8669,
      "okazała": 8670,
      "dodatek": 8671,
      "związki": 8672,
      "wersja": 8673,
      "słońce": 8674,
      "wyraźniej": 8675,
      "wyjaśni": 8676,
      "kierowców": 8677,
      "głębie": 8678,
      "uchwał": 8679,
      "dwukrotnie": 8680,
      "ślady": 8681,
      "piękna": 8682,
      "osiedla": 8683,
      "patrywa": 8684,
      "przyszła": 8685,
      "prawdziwe": 8686,
      "wyjdzie": 8687,
      "papież": 8688,
      "najlepszy": 8689,
      "środowisku": 8690,
      "zakres": 8691,
      "próbować": 8692,
      "Izby": 8693,
      "Michała": 8694,
      "przygotowane": 8695,
      "dowiedzieć": 8696,
      "wrześniu": 8697,
      "połowy": 8698,
      "rzeczywistość": 8699,
      "wyjątk": 8700,
      "parlamentarzy": 8701,
      "paliw": 8702,
      "Zakład": 8703,
      "optymi": 8704,
      "listopa": 8705,
      "przedmioty": 8706,
      "przedmiotem": 8707,
      "najważniejszych": 8708,
      "utrzymanie": 8709,
      "gwarant": 8710,
      "powrocie": 8711,
      "pozbawienia": 8712,
      "córka": 8713,
      "manife": 8714,
      "atmosferze": 8715,
      "emigra": 8716,
      "Kazimierza": 8717,
      "bezrobotnych": 8718,
      "???": 8719,
      "fotografi": 8720,
      "chleb": 8721,
      "kosme": 8722,
      "żywności": 8723,
      "autobus": 8724,
      "Góry": 8725,
      "Nowak": 8726,
      "funkcjonowania": 8727,
      "napast": 8728,
      "pasażerów": 8729,
      "gabinetu": 8730,
      "intensyw": 8731,
      "śledztwo": 8732,
      "perspektywy": 8733,
      "przechowy": 8734,
      "Balcerowi": 8735,
      "pojazdów": 8736,
      "Istnie": 8737,
      "maksyma": 8738,
      "Parlamentarnego": 8739,
      "Sławomir": 8740,
      "Przewodniczą": 8741,
      "\")": 8742,
      "63": 8743,
      "AN": 8744,
      "Aga": 8745,
      "Car": 8746,
      "Dr": 8747,
      "Fra": 8748,
      "Jur": 8749,
      "STA": 8750,
      "Trwa": 8751,
      "UOP": 8752,
      "ama": 8753,
      "dl": 8754,
      "gni": 8755,
      "jnego": 8756,
      "pto": 8757,
      "sbur": 8758,
      "utrwa": 8759,
      "ubezpiecze": 8760,
      "wprowadzenia": 8761,
      "ślub": 8762,
      "śników": 8763,
      "śmiał": 8764,
      "nai": 8765,
      "nacjona": 8766,
      "naśla": 8767,
      "cznika": 8768,
      "niewin": 8769,
      "pocią": 8770,
      "pozostało": 8771,
      "szk": 8772,
      "jewski": 8773,
      "kape": 8774,
      "zatwier": 8775,
      "zaple": 8776,
      "zazdro": 8777,
      "dostrzega": 8778,
      "tent": 8779,
      "teatr": 8780,
      "tana": 8781,
      "typowy": 8782,
      "kinie": 8783,
      "wyści": 8784,
      "daleka": 8785,
      "przesą": 8786,
      "przeszedł": 8787,
      "lasy": 8788,
      "oddzie": 8789,
      "nianie": 8790,
      "pami": 8791,
      "ryce": 8792,
      "ceniu": 8793,
      "momentu": 8794,
      "ściga": 8795,
      "przykro": 8796,
      "przyzwycza": 8797,
      "cjoni": 8798,
      "cjom": 8799,
      "pistole": 8800,
      "zeru": 8801,
      "balko": 8802,
      "boku": 8803,
      "semina": 8804,
      "beł": 8805,
      "chory": 8806,
      "Nadz": 8807,
      "prawne": 8808,
      "szczeniu": 8809,
      "pór": 8810,
      "przedmiot": 8811,
      "trasie": 8812,
      "zur": 8813,
      "warst": 8814,
      "warszta": 8815,
      "górze": 8816,
      "straży": 8817,
      "skutki": 8818,
      "mentach": 8819,
      "wzdłuż": 8820,
      "Katarzy": 8821,
      "Che": 8822,
      "kolega": 8823,
      "Wyż": 8824,
      "Domi": 8825,
      "słab": 8826,
      "tworzenie": 8827,
      "grupowa": 8828,
      "zwró": 8829,
      "Wiesz": 8830,
      "ważna": 8831,
      "pisanie": 8832,
      "przeciwnie": 8833,
      "starszych": 8834,
      "walkę": 8835,
      "Prawa": 8836,
      "drzej": 8837,
      "sprzą": 8838,
      "filmie": 8839,
      "wczes": 8840,
      "projekcie": 8841,
      "produktów": 8842,
      "ciemności": 8843,
      "politykę": 8844,
      "Czecze": 8845,
      "słońca": 8846,
      "człon": 8847,
      "Komitet": 8848,
      "finansowe": 8849,
      "wniosków": 8850,
      "zawodników": 8851,
      "Sądu": 8852,
      "książę": 8853,
      "centy": 8854,
      "trwają": 8855,
      "młodzi": 8856,
      "pięknie": 8857,
      "sensie": 8858,
      "wykorzystać": 8859,
      "amerykańskiego": 8860,
      "szczał": 8861,
      "dziennikar": 8862,
      "rolników": 8863,
      "lubią": 8864,
      "otwarcia": 8865,
      "ogranicza": 8866,
      "obejrzeć": 8867,
      "ideo": 8868,
      "ukara": 8869,
      "przeznaczone": 8870,
      "zwycięstwo": 8871,
      "konkretnie": 8872,
      "należało": 8873,
      "transport": 8874,
      "traktować": 8875,
      "demokracji": 8876,
      "otrzymali": 8877,
      "zabija": 8878,
      "diece": 8879,
      "kwadra": 8880,
      "uśmiechem": 8881,
      "utrzymać": 8882,
      "komunikacji": 8883,
      "nacisnąć": 8884,
      "kwotę": 8885,
      "kredytu": 8886,
      "Rzecznik": 8887,
      "konsul": 8888,
      "sonda": 8889,
      "Szkoda": 8890,
      "konsekwent": 8891,
      "próbuje": 8892,
      "komórki": 8893,
      "owują": 8894,
      "Maryja": 8895,
      "wnioskiem": 8896,
      "źródła": 8897,
      "mogłoby": 8898,
      "zawiado": 8899,
      "wynagrodzenia": 8900,
      "Kance": 8901,
      "rezerwa": 8902,
      "senatorów": 8903,
      "Ameryki": 8904,
      "Lepper": 8905,
      "Antoni": 8906,
      "reżyse": 8907,
      "Brytanii": 8908,
      "satysfak": 8909,
      "mediów": 8910,
      "listopadzie": 8911,
      "41": 8912,
      "BY": 8913,
      "Broni": 8914,
      "Dow": 8915,
      "Eliza": 8916,
      "Fil": 8917,
      "Ost": 8918,
      "Pró": 8919,
      "Pale": 8920,
      "SK": 8921,
      "Wróci": 8922,
      "Zwycię": 8923,
      "as": 8924,
      "jona": 8925,
      "mowanie": 8926,
      "nnie": 8927,
      "tnika": 8928,
      "towym": 8929,
      "tową": 8930,
      "ulo": 8931,
      "uczyć": 8932,
      "upadku": 8933,
      "udzieli": 8934,
      "wkład": 8935,
      "wprowadzenie": 8936,
      "zmart": 8937,
      "ódź": 8938,
      "żały": 8939,
      "strybu": 8940,
      "niemiecki": 8941,
      "posze": 8942,
      "pozostał": 8943,
      "podziału": 8944,
      "goście": 8945,
      "kodek": 8946,
      "kare": 8947,
      "zai": 8948,
      "zacząć": 8949,
      "letnie": 8950,
      "dostaw": 8951,
      "doktora": 8952,
      "tatu": 8953,
      "tabe": 8954,
      "typ": 8955,
      "wysy": 8956,
      "wyroku": 8957,
      "wyciąga": 8958,
      "wili": 8959,
      "rzyli": 8960,
      "przerw": 8961,
      "latem": 8962,
      "odem": 8963,
      "dziłem": 8964,
      "rynk": 8965,
      "kurt": 8966,
      "czyka": 8967,
      "dziewią": 8968,
      "dziecię": 8969,
      "stania": 8970,
      "starej": 8971,
      "debiu": 8972,
      "przyjeżdża": 8973,
      "szyi": 8974,
      "powróci": 8975,
      "piej": 8976,
      "proro": 8977,
      "życzenia": 8978,
      "orkie": 8979,
      "cokolwiek": 8980,
      "badaw": 8981,
      "boles": 8982,
      "spor": 8983,
      "wiatr": 8984,
      "podwór": 8985,
      "jakże": 8986,
      "Nasi": 8987,
      "skrom": 8988,
      "skami": 8989,
      "stoją": 8990,
      "żal": 8991,
      "preten": 8992,
      "wari": 8993,
      "warte": 8994,
      "wszystkimi": 8995,
      "termina": 8996,
      "światem": 8997,
      "som": 8998,
      "Papie": 8999,
      "zior": 9000,
      "prowadzeniu": 9001,
      "Polskie": 9002,
      "niętą": 9003,
      "nięciem": 9004,
      "miejskiej": 9005,
      "tęsk": 9006,
      "dawnego": 9007,
      "piętrze": 9008,
      "końc": 9009,
      "parkin": 9010,
      "złota": 9011,
      "hasło": 9012,
      "Leszka": 9013,
      "cąc": 9014,
      "Wiesław": 9015,
      "organów": 9016,
      "szkoła": 9017,
      "Wice": 9018,
      "Widać": 9019,
      "stosowania": 9020,
      "dowało": 9021,
      "Pił": 9022,
      "stwarza": 9023,
      "Produ": 9024,
      "właścicielem": 9025,
      "honor": 9026,
      "świadczeń": 9027,
      "publicznego": 9028,
      "kolejnego": 9029,
      "podatków": 9030,
      "zrobiła": 9031,
      "własności": 9032,
      "elegan": 9033,
      "procesów": 9034,
      "komuś": 9035,
      "1992": 9036,
      "jedyne": 9037,
      "Panu": 9038,
      "zdobył": 9039,
      "spotkać": 9040,
      "światła": 9041,
      "przedstawić": 9042,
      "polityczną": 9043,
      "słone": 9044,
      "członka": 9045,
      "zawodu": 9046,
      "klubie": 9047,
      "Premier": 9048,
      "czarny": 9049,
      "Rzesz": 9050,
      "pozostanie": 9051,
      "załogi": 9052,
      "kierunek": 9053,
      "reguły": 9054,
      "przyjmuje": 9055,
      "humani": 9056,
      "stosunkowo": 9057,
      "największy": 9058,
      "amerykańskiej": 9059,
      "postawy": 9060,
      "ludzkich": 9061,
      "ludzkiej": 9062,
      "1989": 9063,
      "środowisko": 9064,
      "dokonać": 9065,
      "dokonał": 9066,
      "ńskiemu": 9067,
      "wzięło": 9068,
      "religii": 9069,
      "gorsze": 9070,
      "wojskowej": 9071,
      "przygotowania": 9072,
      "bruta": 9073,
      "znajomy": 9074,
      "znajomości": 9075,
      "legły": 9076,
      "zatrzymali": 9077,
      "najbliższym": 9078,
      "chłopca": 9079,
      "wygrał": 9080,
      "połączenie": 9081,
      "maszyn": 9082,
      "propozycję": 9083,
      "funduszy": 9084,
      "międzynarodowych": 9085,
      "PZU": 9086,
      "dojdzie": 9087,
      "Powiedz": 9088,
      "Rosjanie": 9089,
      "słowem": 9090,
      "teatra": 9091,
      "magne": 9092,
      "robotników": 9093,
      "Agencja": 9094,
      "Elżbie": 9095,
      "porównaniu": 9096,
      "Ksiądz": 9097,
      "kategoria": 9098,
      "kapitału": 9099,
      "piosenki": 9100,
      "powiedzmy": 9101,
      "przepisami": 9102,
      "strategi": 9103,
      "Agnieszka": 9104,
      "srebr": 9105,
      "sklepów": 9106,
      "pogrzeb": 9107,
      "potencja": 9108,
      "uniwersyte": 9109,
      "zezwolenia": 9110,
      "Przypomnijmy": 9111,
      "nadzoru": 9112,
      "kawałek": 9113,
      "At": 9114,
      "Bur": 9115,
      "Brak": 9116,
      "Coraz": 9117,
      "DE": 9118,
      "Dra": 9119,
      "Per": 9120,
      "Tcze": 9121,
      "astro": 9122,
      "atom": 9123,
      "dre": 9124,
      "dowe": 9125,
      "dnym": 9126,
      "dowali": 9127,
      "fru": 9128,
      "hel": 9129,
      "imienia": 9130,
      "jnej": 9131,
      "małego": 9132,
      "mnó": 9133,
      "ope": 9134,
      "oca": 9135,
      "onej": 9136,
      "sos": 9137,
      "tno": 9138,
      "uf": 9139,
      "up": 9140,
      "us": 9141,
      "wczych": 9142,
      "wprowadzić": 9143,
      "łku": 9144,
      "śpi": 9145,
      "Żo": 9146,
      "czko": 9147,
      "rzały": 9148,
      "strzę": 9149,
      "nieo": 9150,
      "niegdy": 9151,
      "niezgo": 9152,
      "niezbyt": 9153,
      "rael": 9154,
      "radość": 9155,
      "pochodzenia": 9156,
      "szowi": 9157,
      "liczą": 9158,
      "kolum": 9159,
      "karz": 9160,
      "kance": 9161,
      "zakrę": 9162,
      "zajął": 9163,
      "zagospoda": 9164,
      "leków": 9165,
      "dok": 9166,
      "dojrz": 9167,
      "dopóki": 9168,
      "tela": 9169,
      "wyzwo": 9170,
      "wypełnia": 9171,
      "wysyła": 9172,
      "rene": 9173,
      "wiz": 9174,
      "widzą": 9175,
      "żela": 9176,
      "noty": 9177,
      "nomina": 9178,
      "nosem": 9179,
      "przeprowadzić": 9180,
      "lanie": 9181,
      "odź": 9182,
      "niania": 9183,
      "dzian": 9184,
      "pale": 9185,
      "czyków": 9186,
      "czynu": 9187,
      "czyste": 9188,
      "czyński": 9189,
      "cewa": 9190,
      "wierzą": 9191,
      "cyna": 9192,
      "ciepły": 9193,
      "ściśle": 9194,
      "przyniósł": 9195,
      "silne": 9196,
      "sanitar": 9197,
      "pieniu": 9198,
      "żyją": 9199,
      "gara": 9200,
      "orie": 9201,
      "bią": 9202,
      "zero": 9203,
      "zerwa": 9204,
      "Pomocy": 9205,
      "meteoro": 9206,
      "bazy": 9207,
      "base": 9208,
      "znać": 9209,
      "sposoby": 9210,
      "jubile": 9211,
      "sud": 9212,
      "Nasz": 9213,
      "Niektórzy": 9214,
      "powiedzieli": 9215,
      "tram": 9216,
      "głe": 9217,
      "okro": 9218,
      "słuchi": 9219,
      "Państwo": 9220,
      "nadmier": 9221,
      "fera": 9222,
      "łeb": 9223,
      "łen": 9224,
      "Wydziału": 9225,
      "pełnią": 9226,
      "dnieniem": 9227,
      "łączy": 9228,
      "Też": 9229,
      "terenu": 9230,
      "plasti": 9231,
      "marki": 9232,
      "ważniejsze": 9233,
      "Szczę": 9234,
      "Szkole": 9235,
      "Angu": 9236,
      "reszta": 9237,
      "majątku": 9238,
      "właścicieli": 9239,
      "publikacji": 9240,
      "podobny": 9241,
      "turystów": 9242,
      "zmienił": 9243,
      "rozpocząć": 9244,
      "fol": 9245,
      "forum": 9246,
      "obowiązuje": 9247,
      "bronią": 9248,
      "wójt": 9249,
      "ulic": 9250,
      "teryna": 9251,
      "Europa": 9252,
      "dalszym": 9253,
      "walić": 9254,
      "powodzenia": 9255,
      "produce": 9256,
      "minutach": 9257,
      "obrotu": 9258,
      "zawodowe": 9259,
      "Socja": 9260,
      "Rynku": 9261,
      "bytków": 9262,
      "dokumentu": 9263,
      "czarno": 9264,
      "piękny": 9265,
      "Cią": 9266,
      "sztuk": 9267,
      "tion": 9268,
      "milczeniu": 9269,
      "poważne": 9270,
      "Armii": 9271,
      "dłonie": 9272,
      "otrzymuje": 9273,
      "otwarte": 9274,
      "elektrow": 9275,
      "idei": 9276,
      "systemie": 9277,
      "lodu": 9278,
      "porucznik": 9279,
      "poczucia": 9280,
      "Augu": 9281,
      "palce": 9282,
      "Park": 9283,
      "pokazuje": 9284,
      "efektyw": 9285,
      "Będą": 9286,
      "powyż": 9287,
      "mężczyznę": 9288,
      "zauważyć": 9289,
      "Włodzi": 9290,
      "Bożego": 9291,
      "demokracja": 9292,
      "wojennych": 9293,
      "Świata": 9294,
      "znisz": 9295,
      "propozycje": 9296,
      "Mariusz": 9297,
      "wyobraża": 9298,
      "nazwą": 9299,
      "jakichś": 9300,
      "zakładów": 9301,
      "wypadków": 9302,
      "wyglądać": 9303,
      "zmniejsza": 9304,
      "izrael": 9305,
      "Ludwi": 9306,
      "miesięcznie": 9307,
      "konflikt": 9308,
      "Mosk": 9309,
      "Moskwie": 9310,
      "apel": 9311,
      "Chrystus": 9312,
      "aparat": 9313,
      "niebawem": 9314,
      "ONZ": 9315,
      "odejść": 9316,
      "Komenda": 9317,
      "Stowarzyszenia": 9318,
      "Katowicach": 9319,
      "likwidacji": 9320,
      "Starogar": 9321,
      "gimnazjum": 9322,
      "Wyborczej": 9323,
      "Jorku": 9324,
      "Edward": 9325,
      "stanowczo": 9326,
      "Prezydenta": 9327,
      "Expre": 9328,
      "Małgorzata": 9329,
      "kąpieli": 9330,
      "Mieczysław": 9331,
      "**": 9332,
      "//": 9333,
      "://": 9334,
      "Ag": 9335,
      "Ana": 9336,
      "Bla": 9337,
      "DP": 9338,
      "Dobra": 9339,
      "Dąb": 9340,
      "Eko": 9341,
      "Fia": 9342,
      "Ke": 9343,
      "Kę": 9344,
      "Kru": 9345,
      "Och": 9346,
      "Ozna": 9347,
      "Olek": 9348,
      "Około": 9349,
      "Psy": 9350,
      "Stru": 9351,
      "Stąd": 9352,
      "Wój": 9353,
      "Znaj": 9354,
      "Zrobi": 9355,
      "dałem": 9356,
      "płod": 9357,
      "rie": 9358,
      "rski": 9359,
      "tta": 9360,
      "umiar": 9361,
      "upoważ": 9362,
      "wna": 9363,
      "wle": 9364,
      "wtrą": 9365,
      "zię": 9366,
      "zki": 9367,
      "złem": 9368,
      "zmusi": 9369,
      "ós": 9370,
      "śnięcie": 9371,
      "żało": 9372,
      "nadaje": 9373,
      "stałam": 9374,
      "niedaleko": 9375,
      "niny": 9376,
      "niło": 9377,
      "niły": 9378,
      "racja": 9379,
      "poku": 9380,
      "polo": 9381,
      "porwa": 9382,
      "poczyna": 9383,
      "szok": 9384,
      "dzki": 9385,
      "roi": 9386,
      "godni": 9387,
      "rzeki": 9388,
      "korup": 9389,
      "kase": 9390,
      "zacze": 9391,
      "zasy": 9392,
      "zapis": 9393,
      "zażą": 9394,
      "leczenia": 9395,
      "dokonuje": 9396,
      "występow": 9397,
      "tość": 9398,
      "tonem": 9399,
      "warzy": 9400,
      "waliśmy": 9401,
      "redu": 9402,
      "rednia": 9403,
      "jacy": 9404,
      "wizeru": 9405,
      "nogami": 9406,
      "przechodzi": 9407,
      "przekazał": 9408,
      "lacja": 9409,
      "latek": 9410,
      "odsu": 9411,
      "odbyło": 9412,
      "kieł": 9413,
      "dzieło": 9414,
      "morze": 9415,
      "cykli": 9416,
      "czeć": 9417,
      "dystrybu": 9418,
      "tum": 9419,
      "przywo": 9420,
      "przychy": 9421,
      "saty": 9422,
      "sarza": 9423,
      "pili": 9424,
      "promo": 9425,
      "propor": 9426,
      "ordy": 9427,
      "Pole": 9428,
      "conego": 9429,
      "mecze": 9430,
      "bal": 9431,
      "rozważa": 9432,
      "sporzą": 9433,
      "Naro": 9434,
      "Nasze": 9435,
[...]
